с т
е н
р а
р о
н о
к о
р е
п о
н и
т о
н а
л ь
в о
н ы
ен и
в а
т е
р и
t ;</w>
& quo
&quo t;</w>
г о</w>
д е
з а
с о
ц и
л и
к а
н а</w>
г о
л е
в е
д о
п ро
л а
в и
т а
т и
л о
н е
д а
о б
м о
ч е
т ь</w>
м е
с я</w>
д и
р у
л и</w>
т о</w>
ст в
с и
б о
ст а
п е
м а
н о</w>
в ы
с е
п ре
к и
н е</w>
м и
с ко
@ -@</w>
п ри
ны х</w>
ч а
о т
ени я</w>
м и</w>
е т</w>
п а
ч и
но й</w>
т ся</w>
с у
п о</w>
д а</w>
ч то</w>
ст о
но ст
щ и
г а
к и</w>
х о
те ль
но го</w>
м ен
ци и</w>
с а
ра з
л а</w>
т а</w>
в л
с ки
д у
л я</w>
и н
п ра
ени е</w>
к а</w>
б ы
р ы
л у
о с
ны е</w>
г и
о р
щ е
ж и
ж е</w>
ко то
с ь</w>
е р
2 0
ш и
н у
ны й</w>
к у
п и
з о
м у</w>
л ю
ва ни
пре д
б у
ве р
г ра
л о</w>
о н
ст ра
по д
ко н
б е
р а</w>
с по
ж а
и з
п у
то м</w>
ст и
н ы</w>
т у
е м</w>
д ля</w>
ност и</w>
е тся</w>
з а</w>
в а</w>
к о</w>
т ы</w>
т ь
е й</w>
ра с
б а
з и
ц е
и з</w>
ст и</w>
ф и
ны м</w>
ств а</w>
т е</w>
н я
кото ры
ю т</w>
л я
л е</w>
ско й</w>
д ен
ств ен
б и
с во
с ка
пе ре
до л
д у</w>
с пе
ю щи
ра бо
мо ж
с ле
е го</w>
во з
с си
м ы</w>
ско го</w>
то в</w>
б ы</w>
ени и</w>
к е</w>
л ь</w>
а ль
го да</w>
з на
20 1
г ла
о т</w>
но е</w>
ре д
де р
вл я
ва ть</w>
т ы
ст ви
ко в</w>
но м</w>
ж е
с лу
ка к</w>
а к
м ы
на я</w>
ть ся</w>
щ а
ра н
ств о</w>
к у</w>
л ен
э то
к ра
р ос
ко м
е к
те р
т и</w>
ф ор
д е</w>
ро в</w>
с е</w>
ски х</w>
ти в
пе р
м а</w>
ст у
т р
о на
ш е
да р
в ре
ц ен
рос си
га ни
м у
в се
ни я</w>
р я
г у
де т</w>
т ре
р ы</w>
ени ю</w>
п ла
го во
д о</w>
ле й</w>
ст ь</w>
с ло
та к
хо ди
ж ен
о н</w>
ч ен
в я
сто я
ве т
вани я</w>
ро д
ност ь</w>
д ни
ка за
но в
по л
з ы
и х</w>
а р
и с
д ы</w>
ци я</w>
ци й</w>
ни и</w>
э то</w>
ро ва
и ли</w>
со об
е ди
гани за
ни ма
ча ст
в то
так же</w>
ски й</w>
20 0
ени й</w>
ш а
р е</w>
ну ю</w>
с а</w>
ста ви
к ре
т ра
р и</w>
т у</w>
ро в
л ся</w>
д ру
ль ко</w>
к лю
ме ст
да н
р я</w>
с я
ни е</w>
б ли
ру п
ме ж
н и</w>
су дар
пра ви
т ру
де й
бо ль
ст ро
ж д
ны ми</w>
н ен
по ли
во й</w>
ци аль
х а
к ла
в о</w>
ли сь</w>
о д
ле к
которы е</w>
с мо
1 9
ст е
со б
ю тся</w>
ко но
па р
в се</w>
бо ле
ств у
она ль
во про
по лу
бу дет</w>
с ред
об ла
я х</w>
а н
г да</w>
го судар
ь ю</w>
н я</w>
ло ве
м е</w>
ти че
0 0</w>
з у
с вя
ко й</w>
ве д
че лове
от вет
ти я</w>
м я</w>
в у
ски е</w>
росси и</w>
об е
т ро
с ле</w>
вл ен
т я
ч то
ст во
щ е</w>
в ши
ци ю</w>
н к
ло сь</w>
дол ж
во ди
е с
ло ж
раз ви
то го</w>
ри и</w>
л ения</w>
на род
го ду</w>
т ри
су ще
за я
ш е</w>
фор ма
от но
вы х</w>
об ъ
ми ни
е е</w>
кото ро
и спо
па с
боле е</w>
до в</w>
бы ло</w>
те ль</w>
в ы</w>
ф е
что бы</w>
э том</w>
к ры
во д
ре ш
ре ги
ю ще
на ча
ци он
вре мя</w>
ж да
ен е
ду народ
со в</w>
ст в</w>
гра м
те лей</w>
ль та
но в</w>
дей стви
э к
ст ре
б ле
з да
бы л</w>
при ня
ени ем</w>
де ла
ра ль
зы ва
вани е</w>
не е</w>
о на</w>
у же</w>
ганиза ции</w>
ска за
мож ет</w>
к то
я ми</w>
ме р
п ри</w>
ска я</w>
я вля
воз мож
дер жа
про ек
т вер
м л
обла сти</w>
б ря</w>
ла сь</w>
со ответ
вл ения</w>
го то
об раз
ста но
вы е</w>
ва м</w>
по мо
ин форма
бы ли</w>
та к</w>
ч ения</w>
спо р
от ме
г и</w>
об ще
г а</w>
с о</w>
о ру
ни к</w>
ма н
р ь
ми те
тру дни
сто ро
еди нен
то лько</w>
ду т</w>
ств е</w>
ни й</w>
со трудни
в е</w>
зи ден
ка н
коно ми
я м</w>
тель но</w>
сту п
а вто
пу бли
ком па
з е
г руп
дру ги
те м</w>
отно ш
про грам
пред стави
g t;</w>
& gt;</w>
ц а</w>
в ро
ка х</w>
ль зо
обе спе
чи та
ско м</w>
п ы
ко м</w>
и ме
ч ение</w>
по сле
во го</w>
в ра
ле т</w>
ру б
се да
фи на
он и</w>
го ло
по сле</w>
то ч
ющи х</w>
1 0</w>
ло ги
те ли</w>
но му</w>
че м</w>
ци а
прави тель
е з
о к
ци ональ
ста вля
е ще</w>
ни ков</w>
гово ри
хо д
рабо та
э кономи
го д
которы й</w>
с т</w>
не об
с ы</w>
меж дународ
росси й
н д
ни х</w>
ли ч
са мо
у част
ки х</w>
т ен
ро м</w>
вре мен
со зда
у р
си сте
не т</w>
не й</w>
ш ен
н у</w>
ц ы</w>
19 9
ст а</w>
в ла
ф ер
зу льта
м о</w>
единен ных</w>
l t;</w>
& lt;</w>
с ш
образ о
г е
сш а</w>
со гла
го ро
те х
л ы
ч и</w>
у ча
сле до
ви л</w>
у ч
ле т
де я
слу ча
г ро
необ ходи
с ен
с ы
это го</w>
вы й</w>
суще ств
ре зульта
ко гда</w>
ос нов
сси и</w>
е мы
ла га
п ло
м но
ва н
помо щ
те ля</w>
ц а
а д
не го</w>
ц е</w>
пре де
про ти
то р
в з
ве ст
пре зиден
пе ра
ин те
при я
г ен
ме р</w>
объ единенных</w>
на ций</w>
в ен
о б</w>
у ров
о ста
п я
про це
про из
о существ
смо тр
бы ть</w>
за щи
ба н
ко р
ни че
зо пас
м ос
х и
фина н
с ни
ор ганизации</w>
ра й
свя з
сле ду
2 0</w>
пра во
об ра
пи са
ва ет</w>
с чита
вл ение</w>
ни ка
те ле
ес ли</w>
по д</w>
у пра
на ли
ски м</w>
полу чи
п ы</w>
дея тель
ма р
ни ки</w>
м пи
ва л</w>
до м</w>
э ти
та м</w>
с с</w>
про бле
л ы</w>
е в</w>
ст ру
мос к
под дер
бу дут</w>
пу нк
ста в
ене раль
гу т</w>
ди н</w>
у кра
е сть</w>
это й</w>
все х</w>
в клю
с ла
ку мен
и сто
ж ения</w>
б е</w>
ки е</w>
на ру
мож но</w>
ру ко
ф у
л ение</w>
т ран
к ри
д ви
рова н
те ри
сооб ща
ча с</w>
о х
до кла
1 2</w>
жен щи
ку ю</w>
до б
са м</w>
& #
ва я</w>
р ен
&# 9
с ки</w>
до ро
челове ка</w>
которы х</w>
ющи е</w>
испо льзо
а лек
л у</w>
чен ь</w>
сооб щи
ва ли</w>
бы ла</w>
рабо т
1 5</w>
на ко</w>
щ ен
во с
по р
до кумен
и ю
явля ется</w>
це в</w>
мо й</w>
ло м</w>
по з
е вро
об и
ра м
я за
ко го</w>
ш ения</w>
лю д
слу ж
разви тия</w>
к е
3 0</w>
про ве
р у</w>
зопас ности</w>
ор ганиза
ро вать</w>
к ва
ство м</w>
сто и
чи с
сказа л</w>
я н
на циональ
связ и</w>
боль ш
ка че
пре до
р о</w>
челове к</w>
м ь
у да
л ли
на м</w>
ци ей</w>
гра ни
мини ст
я т</w>
ф ак
г енераль
д ву
ко ман
п ен
и м</w>
при нима
б а</w>
на ш
у сло
при зна
жи з
й час</w>
меж ду</w>
ме ри
п а</w>
со стоя
г е</w>
ва ж
стра ны</w>
н ения</w>
инте ре
о пера
ра в
ра я</w>
бо р
ор га
б ра
об о
пе ри
т ных</w>
ч лен
ту а
со ве
уча сти
о преде
1 1</w>
г де</w>
ль но</w>
с ро
х ся</w>
щ ения</w>
че р
ско лько</w>
ста н
лу ч
си ли
ва ри
об яза
по тре
ми ра</w>
в не
отме ти
на стоя
за ме
б ю
мо гут</w>
се кре
не р
ни тель
ви де
с ли</w>
на д
р ф</w>
го д</w>
о фи
о каза
жд ения</w>
ни ка</w>
о чень</w>
про дол
у ве
ско е</w>
ч но</w>
отнош ении</w>
стро и
вы м</w>
это му</w>
по лож
под гото
пере да
ин ы</w>
о в</w>
ри то
пери о
ши х</w>
би ра
ф ек
м я
и мен
у ю</w>
ль ных</w>
ста ть
ни м</w>
стру к
ре а
ми на
че ских</w>
не м</w>
со вер
рабо ты</w>
с дела
в стре
гла в
ност ью</w>
ти и</w>
бе з</w>
на пра
ко мите
по зи
то й</w>
с са
соответ ству
ло в</w>
тель ства</w>
к то</w>
ро вания</w>
ри я</w>
тер рито
во ен
секре та
поддер ж
про ш
в мест
ло жи
5 0</w>
те й</w>
ти е</w>
ки м</w>
от кры
год ня</w>
т но</w>
мо сти</w>
с ер
вы со
в ле
поли ти
да же</w>
ни ю</w>
с че
кото рая</w>
проти в</w>
по каза
усло ви
ка ми</w>
пре ду
зая вил</w>
вла ди
е м
си туа
ро ме</w>
д ы
ма т
ш ь</w>
ла го
ре зо
э ф
с ь
тя бря</w>
ш его</w>
че ской</w>
м ени
за коно
о о
по я
сло вам</w>
не й
до сти
ра к
сто в</w>
компа нии</w>
спе р
ф о
долж ны</w>
ту р
ж но</w>
со циаль
че ского</w>
за ции</w>
у че
чи ть</w>
свя за
стви и</w>
1 4</w>
бо й</w>
ты ся
все го</w>
во м</w>
ш ение</w>
2 5</w>
ч а</w>
деятель ности</w>
о ко
м оби
ка р
рам ках</w>
от де
други х</w>
щи х</w>
т ра</w>
ф а
сту пи
и гра
1 3</w>
фер ен
ва ться</w>
вы бо
стра н</w>
ств у</w>
д же
ющи й</w>
ч у
за клю
вклю ча
с кую</w>
ро й</w>
1 6</w>
из вест
ти й</w>
о дин</w>
эф фек
с со
это т</w>
вы пол
пи та
ка са
ре кто
от ве
ч ь</w>
голо в
те ля
с ма
государ ствен
поли тиче
резо лю
бе зопасности</w>
д ва</w>
с у</w>
де й</w>
ко мен
про вед
о че
на ми</w>
мен т</w>
та х</w>
1 8</w>
ла н
б я</w>
мини стра
за кон
кон тро
ку р
ре з</w>
поз во
ль ного</w>
та ми</w>
ту ры</w>
руб лей</w>
н ение</w>
на с</w>
г ре
то му</w>
офи циаль
же н</w>
уч ре
и г
бу р
ж ден
ж ение</w>
сво ей</w>
ва ется</w>
к ти
ку ль
по бе
ос но
е му</w>
у до
че мпи
объ я
с но</w>
б о</w>
реш ение</w>
б ер
н ению</w>
на х</w>
ка ж
ли к
на се
ль ной</w>
г у</w>
д стви
ме ся
ш та
хо де</w>
сти ту
1 7</w>
де ка
боль ше</w>
за ви
ра з</w>
м ного</w>
алек са
ва ют</w>
пра в</w>
во е</w>
пла ни
ре комен
во й
б лаго
алекса нд
вопро сам</w>
за седа
юще й</w>
г ру
сотрудни че
ско ль
са мы
ко ми
ф он
мо ло
финан со
у стано
пра в
п ос
зна чи
ка зыва
про стра
чи сле</w>
ш ко
щ ение</w>
сма три
ре гу
ве сти
к роме</w>
ма я</w>
ч е</w>
сообща ет</w>
ц у</w>
сво ю</w>
ста влен
о не</w>
с ка</w>
за нима
из мен
эк спер
де ся
реги ональ
р ес
ти н
не сколько</w>
се бя</w>
рес публи
пре ступ
по вы
тран спор
ми лли
про ду
эффек тив
д ра
де ж
с к</w>
не де
се йчас</w>
ма тери
на ходи
су р
тр и</w>
ча ет</w>
мери кан
ко в
и зо
случа е</w>
информа ции</w>
ност ей</w>
че рез</w>
од нако</w>
ва ми</w>
мл р
ше л</w>
хо ро
по м
тель ство</w>
произ вод
систе мы</w>
ль ный</w>
су т
тр ен
эти х</w>
ст о</w>
ти ть</w>
тор го
в ну
у твер
по ч
при мен
мл н</w>
де тей</w>
ст ы</w>
ди ректо
в но</w>
1 0
действи я</w>
ры н
раз ме
о цен
соответ ствии</w>
р ь</w>
ни з
ру ет</w>
2 2</w>
со ста
мо сть</w>
в нима
продол жа
ад министра
пы та
2 1</w>
спо соб
э ти</w>
испо л
ход я
спе к
ра х</w>
сту па
ля х</w>
проду к
1 9</w>
ре б
бю дже
201 2</w>
око ло</w>
ка м</w>
женщи н</w>
сторо ны</w>
ре й
ско в
гра жда
ком п
настоя ще
пу та
вани и</w>
и м
ре сур
с .</w>
ре ши
о нов</w>
е ся</w>
в ли
сво бо
образо м</w>
ми р</w>
при мер</w>
ми ро
ш ей</w>
сво их</w>
до ста
пе й
част ности</w>
зави си
государ ства</w>
й те</w>
д ня</w>
ре з
201 3</w>
мо в</w>
которо й</w>
е в
у слу
с пи
па д
к ру
ря д
помощ и</w>
201 4</w>
вер си
ко л
т р</w>
про цен
и то
к ли
мо н
за ко
про води
подгото в
у ни
пре сс</w>
ль ные</w>
ж дан
руб .</w>
об су
2 4</w>
б ри
сво и</w>
ко е</w>
э лек
б ро
про да
о соб
р ения</w>
при н
стоя н
по ка</w>
емы х</w>
но я
ме ры</w>
к руп
до пол
с са</w>
руко вод
ки й</w>
мно ги
вла сти</w>
каче стве</w>
2 3</w>
э нер
циа ли
ч ной</w>
ди с
201 1</w>
пра ва</w>
оче ред
у сили
бо рь
результа те</w>
д и</w>
мест о</w>
вопро с</w>
укра ины</w>
ь я</w>
а в
й ти</w>
к ну
за да
дан ным</w>
м бле
на б
не ф
соб ствен
но р
ме ди
ден ь</w>
лю дей</w>
со держа
вши й</w>
дру го
ди на
мен ь
ско му</w>
3 ;</w>
&#9 3;</w>
му ж
ли че
т ные</w>
п ря
ты с.</w>
реш ения</w>
ра спо
ви ть</w>
вани ю</w>
а мерикан
ству ет</w>
вани й</w>
ра ции</w>
по се
сред ств</w>
сса мбле
потре б
ак тив
говори т</w>
после дни
201 6</w>
по да
з я
все м</w>
груп пы</w>
ени ях</w>
реа ли
про изо
п е</w>
пу ти
об ви
при чи
росси я</w>
мно го
ме ро
програм мы</w>
ло жен
пере д</w>
ра ми</w>
з ы</w>
но во
ени ями</w>
ми р
у спе
жиз ни</w>
ле га
слу жи
кре п
с и</w>
из не
на ро
да ль
ходи т</w>
ин тер
ски ми</w>
ющи хся</w>
че й</w>
о жи
перио д</w>
у голов
тре бо
с па
тех ниче
ми ну
н ь</w>
к лу
ва ла</w>
се годня</w>
х от
т ной</w>
ян ва
спе циаль
н ных</w>
ли чи
те ги
проек т</w>
дека бря</w>
те к
упра вления</w>
то т</w>
до гово
гра ждан
но логи
к ро
на зна
ре жи
4 0</w>
х ра
по до
горо да</w>
а ссамбле
ис следо
меро прия
й ся</w>
мен та</w>
ле н</w>
раз де
дву х</w>
та й
па ра
раз и
про си
отмети л</w>
ч ных</w>
ли бо</w>
о п
ща я</w>
ши е</w>
стро й
ли шь</w>
обще ствен
млр д</w>
ква р
201 5</w>
пред лож
тель ных</w>
на з
рас хо
ли ц</w>
авто моби
ци о
201 0</w>
1 ;</w>
&#9 1;</w>
фу т
ст ри
о грани
ющи м</w>
э та
прин ци
по лага
кре ди
сове та</w>
законо да
ста л</w>
ответ ствен
та ких</w>
вши х</w>
пред ставля
ко не
со ю
у чи
под чер
включа я</w>
рас смотр
про ис
с бор
террито рии</w>
ност ран
е р</w>
су м
у каза
гра фи
сообщи л</w>
т ров</w>
1 ,
тыся ч</w>
за пре
к си
пред лага
пло ща
под твер
та р
за вер
юще го</w>
ву ю</w>
руко води
участи е</w>
со кра
да х</w>
це лях</w>
ок ру
ка я</w>
г .</w>
то р</w>
л ю</w>
с ня
б изне
рас простра
об ы
со ставля
президен та</w>
. ru</w>
во р
ри й</w>
го род
смо тре
у би
ж а</w>
хо д</w>
мы ш
тель ной</w>
которо го</w>
ви д
раз лич
ж и</w>
сси я</w>
а пре
м ин
дол жен</w>
2 6</w>
до й</w>
обо ро
хо зя
пре ж
ч у</w>
тех нологи
фе де
про вер
с фер
совер шен
л ению</w>
и ностран
ст ер
де сь</w>
про сто</w>
щи й</w>
стра теги
щи е</w>
больш о
стра да
матери а
су д</w>
уров не</w>
2 7</w>
т ки</w>
200 9</w>
которо е</w>
т ного</w>
ен но</w>
че ские</w>
ис клю
на д</w>
спе циали
с ке</w>
ве до
ж ур
ох ра
пер ь</w>
пу сти
те х</w>
че ты
2 8</w>
элек тро
е мо
вани ем</w>
се ссии</w>
мен я</w>
пар та
ор гани
ко личе
де пута
су льта
други е</w>
же ла
ле жа
обеспе чения</w>
бу ду
зе м
зи и</w>
фор ми
ля р
вл ении</w>
до ба
резолю ции</w>
во ль
го ды</w>
та н
государ ств</w>
ру с
возмож ность</w>
за держа
ap os
& apos
&apos ;</w>
раз работ
ору жи
ви ли</w>
су б
комите т</w>
х а</w>
жд ение</w>
правитель ства</w>
о ри
ствен но</w>
де ло</w>
а нали
комп лек
времен и</w>
чемпи она
с ве
ф ри
ль зу
е те</w>
г ли</w>
у ли
ри а
ген т
то к</w>
вен ции</w>
ство вать</w>
объ ек
пар т
тель ного</w>
дан ных</w>
те р</w>
исто ч
че твер
ро ди
с к
проек та</w>
ту ра</w>
следу ет</w>
се рь
пред прия
2 9</w>
насе ления</w>
г ос
стои т</w>
финан си
сто й
ни ть</w>
де л</w>
то ра</w>
ты х</w>
д ми
ь е</w>
б ло
те чение</w>
пре мь
а ви
ди и</w>
ря д</w>
ша я</w>
но вых</w>
сколь ку</w>
ч ного</w>
со м</w>
со стави
з у</w>
ф ран
де б
ха рак
х ва
ра нее</w>
а нд
фе вра
за ня
ти ю</w>
м .</w>
влади мир</w>
я зы
ди а
тер ро
оо н</w>
рабо ту</w>
г ей</w>
ди ть</w>
200 8</w>
ч ный</w>
3 1</w>
и мо
муж чи
не му</w>
го р
дми три
фи ль
тер бур
г ер
тиче ски</w>
од ной</w>
полу ча
моск ве</w>
б ре</w>
внима ние</w>
счита ет</w>
александ р</w>
при ве
ст е</w>
че го</w>
и ни
по ги
со бы
ши й</w>
доста точ
но ва</w>
по ло
бе с
ли и</w>
ль ю</w>
серь ез
т ный</w>
мен ее</w>
на ло
укра и
се ль
е ха
ле г
по ряд
сер гей</w>
нача ла</w>
рас ши
терро ри
ну жно</w>
6 0</w>
щ ении</w>
ию ня</w>
в ше
вну трен
осуществ ля
з е</w>
укра ин
основ е</w>
сред и</w>
стра не</w>
ж ер
хо да</w>
имен но</w>
ко ва</w>
фу нк
ва х</w>
ши м</w>
пол но
од но
вз я
се мь
тель ные</w>
та кой</w>
стать и</w>
кон ферен
су д
в у</w>
теле м</w>
б у</w>
фи ка
2 .
ме ха
1 00</w>
допол нитель
пред седа
ожи да
л ении</w>
е ва</w>
са ми</w>
президен т</w>
гла ва</w>
мар та</w>
необходи мо</w>
ду ма
проце ду
ста р
ча сти</w>
кон ф
мыш лен
мест е</w>
ен ы</w>
и му
га н
вер ну
го в</w>
г ло
действи й</w>
зыва ет</w>
после д
ви ч</w>
лю да
ва н</w>
м не</w>
се кто
ч ные</w>
ста ли</w>
ма с
мо мент</w>
од ного</w>
сен тября</w>
работа ть</w>
ще го</w>
ш ин
м ся</w>
ав гу
сторо н
информа цию</w>
сво его</w>
ию ля</w>
ча сть</w>
ш ли</w>
и гро
ок тября</w>
де ла</w>
регу ли
проти во
на р
ен ь</w>
фи ци
янва ря</w>
ствен ной</w>
ин вести
ле з
эти м</w>
вы я
сче т</w>
пере гово
н ные</w>
про ку
дер жи
комите та</w>
не ш
хозя й
ведо м
фут бо
ва ются</w>
конф лик
ноя бря</w>
по льзо
пар ла
ли я</w>
по тен
с ме
ра м</w>
кон кре
ст ы
в за
с мен
сове ща
пом ним</w>
явля ются</w>
дол ла
еди н
с мер
по нима
на пример</w>
, 5</w>
учре жд
име ет</w>
ста ло</w>
член ов</w>
вед ения</w>
м нению</w>
люд и</w>
по жа
д ли
о м</w>
полити ки</w>
кон тра
ст ей</w>
об ре
мо р
меди ци
ю ри
з до
при вле
вопро сы</w>
поч ти</w>
с м
рекомен да
де т
у ста
мо м</w>
но си
секрета ря</w>
которо м</w>
су деб
г ля
на ла</w>
вы ра
служ бы</w>
з десь</w>
ло го</w>
про во
напра влен
се зо
ини циа
во ору
реб ен
г но
пра кти
отно си
со вмест
та кие</w>
ру ю</w>
д ь</w>
ени ям</w>
моск вы</w>
иму ще
пер со
ро вание</w>
че ский</w>
пробле мы</w>
по тер
1 8
ди да
про фе
щ ую</w>
соб ра
бе ре
долж на</w>
1 .
ли мпи
до ма</w>
ствен ных</w>
по скольку</w>
пя т
м в
ави а
на помним</w>
дол л</w>
ак ти
ди я</w>
у гро
ре в
апре ля</w>
пе тербур
теля ми</w>
по стоян
настояще е</w>
хо в
ш а</w>
с сы
а гент
пра во</w>
обеспе чи
тре бу
тре ть
по ня
удо в
о пас
кон сульта
цион ных</w>
бо е
на и
у креп
ре й</w>
мен та
опреде лен
ви ла</w>
ше е</w>
1 5
меха низ
ер а</w>
ли де
ц ени
по па
з ор
п ли
жд ы
сво ем</w>
мо сков
произ води
а т
на чи
ж ении</w>
ри ю</w>
ро б
под писа
все гда</w>
сред ства</w>
ново сти</w>
под держа
са х</w>
тель ный</w>
то ва
провед ения</w>
осуществ ления</w>
жур нали
по ку
на ходя
возмож но</w>
пе ча
с с
сво й</w>
с се
мы х</w>
до ступ
генераль ной</w>
л ений</w>
зо в</w>
сотрудни ков</w>
в шего</w>
о пы
ст вами</w>
сдела ть</w>
кан дида
рас сматри
к т</w>
са нк
кон венции</w>
поя ви
подчер кну
генераль ного</w>
стви я</w>
рабо те</w>
орга нов</w>
позво ля
че т
стви е</w>
за д</w>
поги б
вы ше</w>
со бой</w>
га м</w>
пред ставлен
200 7</w>
о те
алек се
ра и
а о</w>
ц ер
рас сказал</w>
й дет</w>
пен си
та ции</w>
по тому</w>
образо вания</w>
ча ется</w>
ден ь
емы е</w>
ж ной</w>
то ров</w>
де н</w>
республи ки</w>
теля м</w>
на зад</w>
квар ти
за кры
рова л</w>
це лью</w>
0 00</w>
ор дина
сте пен
гла вы</w>
по страда
гер ма
ту ри
воз ра
профе сси
во т</w>
помощ ь</w>
во ду</w>
я дер
раз у</w>
вы ступа
испо льзу
и де
воз ду
ме то
ш ем</w>
ран ения</w>
ми ха
проце с
тив ных</w>
се бе</w>
ще й</w>
а ре
1 3
ло н
возмож ности</w>
рас следо
ри ть</w>
медици н
200 6</w>
ден е
201 7</w>
ле е</w>
да вно</w>
по доб
защи ты</w>
пер вые</w>
те го
стра нах</w>
а л
приня ть</w>
дан ные</w>
ти л</w>
7 0</w>
гражда н</w>
лю бо
рай оне</w>
от сут
ресур сов</w>
сотрудниче ства</w>
за во
февра ля</w>
особ енно</w>
сло ва</w>
к рас
вли я
по сред
э ту</w>
го спо
ши ро
хот я</w>
ты й</w>
ги и</w>
поли ции</w>
де ли
на зыва
переда ет</w>
заме сти
жа й
пер вый</w>
тру д
ве сти</w>
э ро
са й
но вые</w>
находи тся</w>
пя ть</w>
ки та
смотр я</w>
че му</w>
ци ями</w>
г ну
ня я</w>
во в</w>
по вест
здо ров
мо кра
спо ко
во сто
организа ций</w>
ви ди
и ра
чис лен
ситуа ции</w>
та ль
ф он</w>
обла ст
об но
те м
на до</w>
сво е</w>
ре аль
ру ется</w>
минист р</w>
ны неш
ч ению</w>
тр е</w>
дей ству
с рав
пути н</w>
ра б
вмест е</w>
ве з
россий ских</w>
ч ении</w>
ми и</w>
ль ник</w>
правитель ство</w>
пра к
компа ния</w>
бер на
публи ко
ро ль</w>
см и</w>
то же</w>
во к</w>
по этому</w>
органи зо
которы м</w>
о щ
вы пла
стой чи
де к
и дет</w>
больш ин
жер т
груп па</w>
ин ф
я сь</w>
ствен ного</w>
полно мо
1 4
ни цу</w>
международ ного</w>
ка тего
w .
вто рой</w>
из да
докла д</w>
вза имо
ъ я
д ж
от каза
н .</w>
позво ли
бе з
вы ми</w>
защи т
ни ем</w>
м ак
феде раль
действи е</w>
даль ней
об служи
голо со
над лежа
цен тра
ка пита
поддер жи
мы е</w>
говори тся</w>
200 5</w>
у бе
д ней</w>
на у
бан ка</w>
де лега
каса ется</w>
ма ни
це й
ход ят</w>
ш и</w>
ш ла</w>
дни м</w>
ад ре
ш ло</w>
пред принима
стан дар
рова ли</w>
му ни
пар тии</w>
си л</w>
у ди
на л</w>
по ме
об нару
ки н</w>
те перь</w>
с виде
премь ер</w>
а фри
у луч
то гда</w>
участ ников</w>
воз вра
лы х</w>
директо р</w>
сто ли
не зависи
ww w.
си ль
ни ко
кри зи
ми гра
л ле
да ть</w>
по ра
3 5</w>
вши е</w>
устано влен
ми ре</w>
про мышлен
уда лось</w>
долж но</w>
ни л</w>
ре н</w>
з ер
пред ложи
со хра
ви зи
день ги</w>
смотре ть</w>
уби й
ж ных</w>
ма тиче
пра вам</w>
поддерж ку</w>
се вер
су да</w>
международ ных</w>
сообщи ли</w>
ш о
деятель ность</w>
пре кра
ло в
авгу ста</w>
вл ению</w>
отме чает</w>
л ко
уров ня</w>
ци ях</w>
п раз
но к</w>
услу г</w>
рован ных</w>
е же
ри н
бли жай
ма ссо
о цени
ча ть</w>
тре х</w>
1 6
поддерж ки</w>
жды й</w>
8 0</w>
ва лись</w>
г лу
с ан
с ре
наб люда
во бо
да м</w>
подо з
ста на</w>
евро пей
з ма</w>
при мер
ф из
после дстви
кото рую</w>
дмитри й</w>
ма ш
по ль
по р</w>
полож ения</w>
тель ств</w>
но вого</w>
извест но</w>
тив ного</w>
парт не
со времен
в с
тра ди
ты е</w>
эк с
мв д</w>
пи сь
и ми</w>
4 5</w>
ко с
сбор ной</w>
объ е
пунк т</w>
вла де
де ле</w>
се м
чен ы</w>
че т</w>
чу в
ра ди
у стойчи
ко ордина
ме ре</w>
коман ды</w>
ве ли
цион ной</w>
об ору
представи тель</w>
ли н
0 1</w>
ющи еся</w>
ста ла</w>
она х</w>
уче том</w>
нор ма
ше д
га ран
у з
юще е</w>
мен я
ин ститу
ни ком</w>
наш ей</w>
ру ют</w>
те а
но вый</w>
не закон
бо ро
програм м</w>
с пра
у строй
обору до
п р
при лож
нару ш
ва р
очеред ь</w>
ста ть</w>
э ко
тель ным</w>
о кон
да ми</w>
обеспе чить</w>
из бира
удов лет
э та</w>
сле дстви
с ли
смотр ен
1 7
ша ть</w>
ри й
кри мина
при з
последни е</w>
ан ти
ри а</w>
вл ением</w>
ще м</w>
по стано
уве ли
кон це</w>
дви жения</w>
лет ний</w>
друго й</w>
тя же
гу берна
пред вари
т ным</w>
но вой</w>
торго в
да ет</w>
ни цы</w>
ти ки</w>
кор ре
гло ба
стави ть</w>
чен ных</w>
пробле м</w>
про сь
по ложи
горо де</w>
обра ти
жиз нь</w>
потен циа
получи ть</w>
став ки</w>
ва ны</w>
со бира
ца м</w>
оружи я</w>
ви н
хо те
ве де
чи ты
т ю
2 ,
мо де
ме тров</w>
е с</w>
сооб ще
би р
пол ностью</w>
ди л</w>
преду сматри
при обре
пред ста
на уч
ст ью</w>
вы пу
по в</w>
ь ю
га зе
процен тов</w>
со ван
предо ста
ста би
мас шта
. 1</w>
вос стано
с разу</w>
на сили
усили я</w>
многи е</w>
у точ
до би
помощ ью</w>
з дра
цион ного</w>
ве ро
ве ду
ш о</w>
0 ,
продол жи
жа ть</w>
ю н
нар ко
предо ставля
согла си
услови ях</w>
то ко
во ды</w>
реги она</w>
вне ш
0 5</w>
ю щая</w>
то н</w>
ва ли
сло ж
ч ки</w>
не до
н ной</w>
мл н.</w>
ль ным</w>
тур ни
0 4</w>
по ез
ле та</w>
л ки</w>
ло й</w>
поли цей
ста ти
щи м</w>
евро пы</w>
ст вам</w>
чис ло</w>
количе ство</w>
нов ь</w>
са жи
нача ле</w>
д ве</w>
та ким</w>
сфер е</w>
ро к</w>
разви ва
професси ональ
вари ан
разви тие</w>
ющи ми</w>
на каза
гро м
ника ми</w>
достаточ но</w>
проек тов</w>
чен о</w>
производ ства</w>
утвер жда
со вет
0 2</w>
ки ми</w>
на мер
му зы
ниче го</w>
компа ний</w>
во ро
ль ное</w>
вы ступи
то ры</w>
использо вания</w>
во ка
преду пре
нико ла
вто р
долла ров</w>
чи нов
ни ца</w>
в новь</w>
ж у</w>
ста ту
верси те
че ра</w>
согла сно</w>
кон кур
жа ло
вопро су</w>
та сс</w>
физ и
ва с</w>
о з
па мя
от ра
ству ют</w>
воз гла
разви тию</w>
вы да
ня ть</w>
обе ща
дар я</w>
3 2</w>
миха и
бюдже та</w>
подготов ки</w>
иностран ных</w>
а эро
уче б
при води
с бо
вопро сов</w>
дви га
сказа ть</w>
уве личи
минист ра</w>
це лом</w>
росси я
ма н</w>
200 4</w>
о публико
пи ш
ма ши
се к
минист ер
ди ли</w>
ли зации</w>
пред полага
различ ных</w>
пас сажи
ме й
б ар
0 6</w>
получи л</w>
рабо чи
ре ли
спо н
емо го</w>
си лу</w>
в кла
рас ска
ци ям</w>
спор та</w>
кон ку
россий ского</w>
мест а</w>
де мон
ста н</w>
0 3</w>
ча й
ст ин
не с
со к</w>
гос ду
са йте</w>
тель ное</w>
ен а</w>
со еди
п у</w>
заседа нии</w>
а мери
борь бе</w>
ка кой</w>
сове т</w>
мо щ
ли й
со бо
многи х</w>
большо й</w>
с п
ца ми</w>
все й</w>
четы ре</w>
то н
19 8
м э
ча я</w>
ка м
оп пози
ва на</w>
фо то
кто р</w>
лю би
се ти</w>
че ским</w>
прове ден
вз ры
сро к</w>
ассамбле и</w>
составля ет</w>
экономи ки</w>
до к</w>
ствен ный</w>
наи более</w>
име ют</w>
ва ло</w>
окон ча
пре вы
представи тели</w>
дис кримина
х у
феде рации</w>
ль ная</w>
200 0</w>
ну ж
тив ы</w>
9 0</w>
про те
про гре
использо вать</w>
. co
ни ми</w>
ма х</w>
де м</w>
уров ень</w>
поя сни
вы з
му ли
ба ты
ка кие</w>
че н</w>
проку ра
ствен ные</w>
3 3</w>
та кого</w>
од на</w>
о дним</w>
упра вля
доб ро
разме ре</w>
реш ений</w>
цен тра</w>
представи телей</w>
о казыва
ш тра
к ни
ста нет</w>
об ще</w>
те ку
зы вать</w>
про жи
ле м</w>
конферен ции</w>
ч ка</w>
доро ж
свя щен
ти в</w>
ев ро</w>
ди н
имен и</w>
мо гли</w>
о зна
а та
де ля
куль тур
п си
0 7</w>
н ю
мен ти
т вор
тран с
хоро шо</w>
на писа
це п
у вер
не которые</w>
тив ные</w>
из раи
0 9</w>
из мени
го ся</w>
ку с
ку пи
измен ения</w>
не в
ро ст</w>
вед ли
4 8</w>
коми ссии</w>
0 8</w>
про гно
начи на
ма м</w>
че ски</w>
ко му</w>
ре фор
кол лек
ви тся</w>
ти ли</w>
ко ло
расхо дов</w>
бан к</w>
участ во
пер вой</w>
по пу
мани тар
окру жа
те ра</w>
ли ца</w>
реали зации</w>
самы х</w>
ребен ка</w>
пу тем</w>
ш ению</w>
ч ном</w>
у по
тив ной</w>
моло деж
проце сс</w>
пере во
ос вобо
кли ен
милли онов</w>
ва лся</w>
примен я
струк ту
го м</w>
рын ке</w>
ре е</w>
информа ция</w>
ма кси
обще ства</w>
украи не</w>
ла й
те ра
ко ро
рай она</w>
относи тельно</w>
каж до
по том</w>
воз бу
администра ции</w>
ком му
торгов ли</w>
меся цев</w>
кра й
соответству ющих</w>
анд рей</w>
че ская</w>
ве ден
сто м</w>
д ки</w>
ь я
исто рии</w>
государ ство</w>
гу манитар
ч .</w>
ссы л
рова ны</w>
конку рен
экспер тов</w>
ве й
ка ждый</w>
лимпи й
5 5</w>
цен тре</w>
вед ение</w>
преж нему</w>
созда ния</w>
ба л
прове сти</w>
3 4</w>
воору жен
аэро пор
ку да</w>
прош лом</w>
де мокра
рын ка</w>
ров ки</w>
3 7</w>
ви де</w>
обяза н
3 .
эко логи
регу ляр
ро ста</w>
куль туры</w>
3 6</w>
ла х</w>
ле в
це лей</w>
ме д
му ю</w>
ито гам</w>
ходи ть</w>
сво им</w>
ря т</w>
ника м</w>
за интере
реги оне</w>
ж ей</w>
про па
цион ные</w>
д .</w>
20 0</w>
о пла
чен ко</w>
про с</w>
член а
е мой</w>
ви и</w>
получи ли</w>
си рии</w>
ни н</w>
емы й</w>
цио не
лы й</w>
за пи
дела ть</w>
ша ет</w>
повест ки</w>
спор т
ми мо</w>
зна чение</w>
ка та
националь ных</w>
поряд ка</w>
на й
не сколь
чемпиона та</w>
из вести
о но</w>
обще го</w>
хо дов</w>
мен ты</w>
струк туры</w>
националь ной</w>
точ ки</w>
все мир
алексе й</w>
тр ене
полномо чи
ги е</w>
200 3</w>
ще е</w>
с цен
жа ет</w>
тив ный</w>
преду смотрен
201 8</w>
отнош ения</w>
ва лю
участи я</w>
оцен ки</w>
обще й</w>
луч ше</w>
ч ным</w>
ль ном</w>
выбо ров</w>
не которых</w>
чи к</w>
свобо д
ф ору
завер ши
ме н</w>
прави л</w>
ш ении</w>
л ением</w>
о ст
сто л
во л
дру г</w>
пользо ва
ча сов</w>
подчеркну л</w>
кон струк
поло ви
з рения</w>
други ми</w>
ку п
об у
проце сса</w>
ба й
контро ля</w>
вой ны</w>
ка з
право охра
ж ению</w>
сы гра
ла ми</w>
жи телей</w>
э ле
систе ма</w>
щи ков</w>
юри ди
тра в
4 9</w>
п лу
мат че</w>
соста в</w>
з я</w>
г ла</w>
вер хов
приня тия</w>
н тов</w>
бе зопас
о к</w>
ис пыта
соб люд
н ении</w>
вы ступ
ре мон
я по
а на
россий ской</w>
дол го
успе ш
цен тр</w>
необходи мости</w>
3 8</w>
а п
ц ве
услови я</w>
д ро
д жа
стати сти
здра во
р ение</w>
встре чи</w>
ы ду
теле фон</w>
игра ть</w>
учи ты
бли з
ме ста
ц ов</w>
исто ри
по воду</w>
контра к
ю щую</w>
о то
щи хся</w>
моск ва</w>
вто ро
тя бре</w>
зако н</w>
ру бе
коне чно</w>
секрета рь</w>
основ ных</w>
с читы
на ших</w>
т ное</w>
ч ная</w>
за тем</w>
да л</w>
зако на</w>
в спо
щ ению</w>
времен но</w>
на вли
каза х
200 2</w>
ен ных</w>
пу ска
пре тен
при сут
служ ба</w>
сер ге
о стано
на деж
обви ня
че ское</w>
ц о
сою за</w>
вед ь</w>
случа ях</w>
пер вого</w>
си лы</w>
нали чи
ско в</w>
де лу</w>
праз дни
здраво ох
у м
тру да</w>
уни версите
и р
ев г
ссо циа
ци па
шен ко</w>
цио ни
мероприя тий</w>
ф а</w>
стра хо
на де
и го
со в
.co m</w>
по со
кол ле
ни ку</w>
во ри
жи ль
у ще
во обще</w>
вы с
ва но</w>
ис кус
4 2</w>
коне ц</w>
це ли</w>
стать е</w>
та кое</w>
фика ции</w>
за ция</w>
ни к
экономи ческого</w>
четы ре
бе жен
прак тически</w>
мень ше</w>
па да
т ка</w>
в и</w>
мен тов</w>
ско ро
на ме
инф ра
ар ен
го дов</w>
реги стри
пунк та</w>
связа нных</w>
тро м</w>
с р</w>
5 1</w>
ш ки</w>
ма га
4 4</w>
результа ты</w>
ю сь</w>
це ле
4 .
докумен тов</w>
фран ц
зая вление</w>
пример но</w>
мы с
адре с</w>
при ме
я тся</w>
ло г</w>
. r
слу жа
та ри
спон ден
де вя
ве ри
до каза
вер х
прош лого</w>
ори те
тель ность</w>
чен ы
5 00</w>
200 1</w>
влен о</w>
ст у</w>
ман да
г ри
рас сказа
чис ла</w>
пиш ет</w>
ви да
5 2</w>
ст вах</w>
мед веде
рова н</w>
вля ет</w>
дан ный</w>
ак ции</w>
ответствен ности</w>
тиче ской</w>
счита ют</w>
4 1</w>
тель ная</w>
свобо ды</w>
е н</w>
под разде
в ью</w>
муни ципа
3 9</w>
неф ти</w>
ту аль
ч рез
ка з</w>
ре ва
с ко</w>
ни же</w>
зор а</w>
ри на</w>
энер ге
ч ением</w>
милли ар
ж ений</w>
сем ь</w>
х и</w>
международ ной</w>
служ бе</w>
т ная</w>
ве л</w>
о в
рабо та</w>
ль зя</w>
де парта
3 ,
обсу жда
ли ц
по пы
состоя нии</w>
герма нии</w>
сти ва
за па
н ю</w>
пред ыду
веро я
с м.</w>
член ы</w>
за бо
об стоя
ан г
докла да</w>
иг ры</w>
приня л</w>
чи л</w>
вы рази
си ст
ду ет</w>
с пу
экс плу
услу ги</w>
за м
ква ли
се н</w>
мы м</w>
примен ения</w>
цион ный</w>
при ходи
ем ся</w>
дости гну
ма ми</w>
вши хся</w>
жи во
га р
о ле
сле д
про токо
ди пло
о г
ох ва
само м</w>
сотрудни ки</w>
4 7</w>
и та
4 6</w>
созда ние</w>
ш у
га зо
работа ет</w>
сан кт</w>
дву х
ин стру
пер вом</w>
не тся</w>
зо р</w>
гру з
при орите
горо д</w>
о логи
ве ще
стре ми
бри та
за р
дей ствовать</w>
при гла
ви це</w>
ад вока
говори ть</w>
су аль
о доб
за боле
но ва
5 8</w>
социаль ной</w>
борь бы</w>
вели ко
до сту
4 3</w>
строи тельства</w>
ча ют</w>
о ши
лен а</w>
ситуа ция</w>
ки на</w>
част о</w>
спра ведли
фран ции</w>
ка ну
за тра
действи тельно</w>
за й
лен ы</w>
произо шло</w>
на гра
груп п</w>
ша н
опера ции</w>
со м
ссыл кой</w>
ки ло
ра баты
ну ть</w>
тив но</w>
бе се
объ ем</w>
та я</w>
су ль
росси ю</w>
5 3</w>
учрежд ений</w>
сум му</w>
благо даря</w>
д ь
мероприя тия</w>
не смотря</w>
кор руп
б ин
ком менти
об щи
предлож ения</w>
бы ст
суще ству
обра ща
финанси рования</w>
си м
па ла
ро н
по ки
пер во
ком мер
ни кто</w>
услови й</w>
у стра
пер вую</w>
5 7</w>
по ста
по священ
наш и</w>
ди ви
по ощ
велико брита
те лю</w>
5 6</w>
приводи т</w>
ин форми
у па
представи ть</w>
суд ь
стан ции</w>
женщи ны</w>
вз но
сту ден
самы м</w>
необходи мость</w>
созда ть</w>
пу ти</w>
соста ве</w>
потенциа ла</w>
полож ение</w>
ту т</w>
х е
заме ча
ме та
де тся</w>
семь и</w>
пере воз
и спа
макси ма
ти рует</w>
ти на</w>
кон ца</w>
га х</w>
мо го</w>
у зна
ли ть</w>
пер вых</w>
пунк те</w>
ь ми</w>
про чем</w>
лю бы
рей тин
клу ба</w>
а б
раз а</w>
ла м</w>
спе ц
ь ше</w>
пе с
фон да</w>
рас преде
с де
о гром
д ца
мо г</w>
уще р
раз работа
поряд ке</w>
по став
объ еди
5 9</w>
под вер
кру г</w>
ра ке
в первые</w>
5 4</w>
под роб
од но</w>
ъ ез
при вет
реги стра
несколь ких</w>
еже год
з ени
в шей</w>
площа д
председа тель</w>
ли нии</w>
со л
выбо рах</w>
поку па
си я</w>
попу ляр
от пра
199 8</w>
докла де</w>
директо ра</w>
де во
те сь</w>
бе ло
кос ми
ответствен ность</w>
па н
лы е</w>
кану не</w>
по чему</w>
фа й
ш ком</w>
щ ений</w>
опреде ля
ня х</w>
ч ное</w>
жи ть</w>
мож ете</w>
по ру
находя тся</w>
п ле
ре чь</w>
ве че
ито ге</w>
со х
орга ны</w>
коман да</w>
го н
лик вида
ти м</w>
фе стива
г ене
из бе
ни це</w>
ци ден
катего рии</w>
оста ется</w>
бизне с</w>
х удо
о су
пред ме
политиче ских</w>
че к</w>
степен и</w>
тру до
по прав
простра н
моло ды
от рас
стои мость</w>
ни ях</w>
со се
к ло
ш ую</w>
6 5</w>
правоохра нитель
199 9</w>
распо ложен
оборо ны</w>
отнош ений</w>
футбо ли
на ч
е д
приня ли</w>
ро ва</w>
фи гу
согла шения</w>
интер вью</w>
тиче ских</w>
ни когда</w>
мину т</w>
од ном</w>
кон цер
экономи ческой</w>
до во
со пер
ти н</w>
здоров ья</w>
при гово
ин ве
ин вали
по ступи
да ли</w>
окружа ющей</w>
дене г</w>
л ка</w>
мен а</w>
ле тов</w>
сни зи
име ть</w>
гово рят</w>
вл ений</w>
к ров
ствен ным</w>
интер фак
зо ло
клю че
здравоох ранения</w>
7 5</w>
ста м</w>
а спек
з ло
дела м</w>
ок е
секрета риа
продук ции</w>
же лез
5 .
уни что
н ью</w>
дости жения</w>
от прави
доба вил</w>
цен ы</w>
круп ней
ню ю</w>
юще м</w>
но ме
3 00</w>
те й
по ст</w>
бо в</w>
до воль
мы й</w>
вы чай
докумен ты</w>
не льзя</w>
к п
насили я</w>
мат ч</w>
ули це</w>
с ной</w>
ты м</w>
чен ные</w>
провед ение</w>
рекоменда ции</w>
зо м</w>
михаи л</w>
региональ ных</w>
це н</w>
го до
програм ма</w>
жд ении</w>
по ле</w>
отве т</w>
предлож ение</w>
ка де
рассмотр ения</w>
з ву
систе му</w>
мат ча</w>
финансо вых</w>
при соеди
у мень
ш ка</w>
п ру
да ле
ситуа цию</w>
ч с</w>
нару шения</w>
замести тель</w>
ни ли</w>
кам па
си ть</w>
н ный</w>
сообщи ла</w>
воен ных</w>
перегово ров</w>
до бы
га за</w>
владе ль
6 .
че скую</w>
рай он
ре ша
к м</w>
на йти</w>
бес пла
строи тельство</w>
раз но
199 5</w>
р ю
мо ни
п лен
у регули
преж де</w>
сред ы</w>
опера ций</w>
побе ди
потре би
тель ную</w>
расхо ды</w>
следо ва
срав нению</w>
и мя</w>
рабо т</w>
про йдет</w>
ка на
з м</w>
подтвер жда
сист ем</w>
a .ru</w>
преступ ления</w>
долж ност
ня ш
ле тия</w>
ско н
мо е</w>
т вра
во д</w>
помо га
долж ности</w>
з ри
принима ть</w>
по неде
анг лий
чи ка</w>
важ но</w>
со единен
т .
после ду
т рам
ника ких</w>
год няш
ме ст</w>
ле ты</w>
ль ную</w>
во до
повы шения</w>
же сто
госпо дин</w>
дискримина ции</w>
де ву
сто й</w>
жи т</w>
докумен т</w>
при род
с ю
места х</w>
т ской</w>
н ного</w>
при бы
авто бу
си х</w>
меся ца</w>
досту п</w>
площа ди</w>
республи ка</w>
государствен ных</w>
т ности</w>
на пад
мага зи
террито ри
акти ви
персо нала</w>
на по
ско рее</w>
д жи
уголов ное</w>
защи те</w>
4 ,
ар хи
уголов ного</w>
д во
с лы
ори ен
влади мира</w>
пер спек
ста не</w>
спи сок</w>
ен о</w>
свиде тель
ле стин
воз ник
систе ме</w>
технологи й</w>
че ском</w>
обла да
сре ду</w>
мест ных</w>
стои тся</w>
199 4</w>
ли й</w>
про вод
то пли
процен та</w>
ря да</w>
с ных</w>
квар та
деся т</w>
инте гра
предо твра
лю бой</w>
крас но
тем пера
за регистри
да в
ма ло</w>
ры х</w>
э н
боле з
бра ть</w>
ап пара
ка зывать</w>
чрез вычай
со стоится</w>
возду ш
199 7</w>
процеду ры</w>
ф е</w>
уста нов
л .</w>
рова но</w>
ви нов
согла со
возмож ностей</w>
вши м</w>
фак т</w>
у казыва
сте р</w>
у виде
лет него</w>
председа теля</w>
подчер ки
ч ную</w>
франц уз
у ро
пре пят
ле й
распо ря
н ской</w>
ка ких</w>
вс ю</w>
хо ды</w>
упра вление</w>
участ ники</w>
ры нок</w>
спорт смен
выбо ры</w>
тель ности</w>
украи на</w>
транспор та</w>
террори сти
фи р
обеспе чение</w>
евро пе</w>
си ло
2 8
ца х</w>
ма й
програм му</w>
бри тан
у н
верси и</w>
чи ков</w>
ка тери
инве сто
при зывает</w>
ши ть</w>
сотрудниче ство</w>
э т
оо о</w>
о стро
жен ы</w>
в в
шко лы</w>
ре кла
эк с</w>
6 4</w>
хо ло
в ки</w>
ту ре</w>
комп ью
чен а</w>
цион но</w>
со р
трене р</w>
обеспе чению</w>
кон ститу
и ска
вши сь</w>
д но</w>
ма ти
большин ство</w>
выпол нения</w>
ген дер
у ме
ня ется</w>
пя ти</w>
раз ных</w>
199 6</w>
пути на</w>
други м</w>
с се</w>
с не
вя т</w>
погиб ли</w>
на н
нача ль
хоте л</w>
го ди
ну т</w>
рай онах</w>
от че
ана логи
тыся чи</w>
ер ы</w>
само го</w>
со держи
приня то</w>
за дол
програм ме</w>
се годняш
организа ция</w>
6 3</w>
у ва
хи ми
зар пла
ни ц</w>
ти т</w>
пол не</w>
пла н</w>
александ ра</w>
кон тек
ки но
бу дем</w>
й ор
га з
га ми</w>
г ря
эффектив ности</w>
за би
сер ви
х о</w>
то ром</w>
проку ро
за пад
которы ми</w>
ми д</w>
предприя тия</w>
разработ ки</w>
парт нер
ре я</w>
ре ди
бе ла
л ки
интер нет</w>
развива ющихся</w>
со зна
фи кси
у чены
со жа
а ли
сай т</w>
жден ы</w>
позволя ет</w>
ме ц
м би
я р
тр ени
сли шком</w>
и ско
бизне са</w>
парла мен
со н</w>
оо н
каче ства</w>
перегово ры</w>
ро ли</w>
5 ,
ре да
со всем</w>
ня ет</w>
смо гут</w>
рова ться</w>
ро ванию</w>
ш лось</w>
ки тай
каж ется</w>
фото графи
то л
ди т</w>
проводи ть</w>
ко дек
о ао</w>
неф ть</w>
представи теля</w>
материа лов</w>
государствен ной</w>
про тя
сен а
компа ни
гото в
про д
ли на</w>
т ную</w>
доступ а</w>
каждо го</w>
актив но</w>
социаль ных</w>
за цию</w>
пен са
де ти</w>
харак тер</w>
случа ев</w>
ча сти
вле н</w>
россий ский</w>
вос кре
до маш
процес се</w>
стра нами</w>
вы де
агент ство</w>
л л</w>
ли н</w>
& amp
&amp ;</w>
у к</w>
вз гля
ща ть</w>
сси й</w>
соответству ющие</w>
вопро са</w>
ни на</w>
спо со
и сла
полу чения</w>
ствен ное</w>
нало го
прове л</w>
д он
е катери
пози ции</w>
под пи
со действия</w>
с вед
ге ро
по нен
з вез
ря дом</w>
во лю
ак ций</w>
ми кро
ра вен
рассмотр ение</w>
реа ги
бо ри
са м
наро дов</w>
которо му</w>
неде ли</w>
суб бо
понеде льник</w>
продолжа ть</w>
рекомен до
т ку</w>
контро ль</w>
ше сть</w>
пят ницу</w>
прави ла</w>
гаран ти
кон так
ван ных</w>
воз обно
ц ска</w>
предприя тий</w>
хо к
ска н
нача ли</w>
рован ные</w>
исклю чи
не посред
корре спонден
ар ти
лен ных</w>
в прочем</w>
рели ги
эк спор
россий ские</w>
глав ный</w>
ра то
ран ьше</w>
позволи т</w>
мини му
c .
ло ва</w>
политиче ской</w>
стратеги и</w>
осуществ ление</w>
зая вила</w>
рев но
руководи тель</w>
пла не</w>
четыре х</w>
ю ж
пла те
ведом ства</w>
энер гии</w>
фор мули
использо вание</w>
мен но</w>
хо чет</w>
поясни л</w>
ци ф
амери ки</w>
б ка</w>
источ ник</w>
го й</w>
результа тов</w>
гра д
т ном</w>
поддерж ке</w>
не давно</w>
объя сня
основ ном</w>
иго рь</w>
ти ем</w>
т п</w>
ствен ная</w>
ком пенса
с кры
а ссоциа
став ку</w>
докумен та</w>
контро ли
н ского</w>
ф ы</w>
зая вили</w>
предлага ет</w>
ар м
г на
объек тов</w>
ме тр
ви ча</w>
коми ссия</w>
ъ ек
м чс</w>
постоян но</w>
учре ждения</w>
дж ет</w>
на пря
е ги
представля ет</w>
ва лась</w>
руковод я
при ем
про фи
6 7</w>
ста ди
сооб щении</w>
ля ции</w>
гру зо
специали стов</w>
груп по
в полне</w>
о й</w>
по стро
ющи мся</w>
мо га
ло к</w>
ко ле
отно ся
2 9
заинтере сован
бежен цев</w>
город ской</w>
н ений</w>
дина мо</w>
6 1</w>
ща ется</w>
высо ко
по то
гово й</w>
гото вы</w>
по кры
6 2</w>
рез ер
националь ного</w>
раз ору
меся ц</w>
ле жит</w>
сто лько</w>
слу ша
законода тельства</w>
при надлежа
обнару жи
ве сь
lent a.ru</w>
демон стри
ми ли
ль я
интере сах</w>
ин циден
весь ма</w>
оте че
и ва
19 7
выя сни
ше ствия</w>
су ди
про ф
м нение</w>
оказа ния</w>
стра нам</w>
од ну</w>
рас считы
осуществ лению</w>
ст р</w>
говори л</w>
подготов ке</w>
быст ро</w>
та ки</w>
2 7
технологи и</w>
точ но</w>
боле ль
само й</w>
не ц
же ст
сек суаль
ста ти</w>
провер ки</w>
связа нные</w>
в ской</w>
исследо вания</w>
ве сь</w>
тех ники</w>
экономи ческих</w>
газ про
жд ений</w>
за пу
я с
сла в</w>
официаль ный</w>
ш ру
6 ,
рабочи х</w>
ть я</w>
суще ство
от ды
б и</w>
пор т</w>
па лестин
ста ми</w>
то е</w>
обяза тельств</w>
б рь</w>
пор та
ликвида ции</w>
напо мина
бан ков
проек ты</w>
до сто
ком мента
объя сни
ги я</w>
ци тирует</w>
у т</w>
оче вид
мужчи н</w>
л ени
бела ру
пре имуще
по ро
вя тся</w>
ми н</w>
хо в</w>
си рий
ка рь
ку па
сто лич
ч ку</w>
ь е
с может</w>
лож ение</w>
ци она
го дах</w>
торго вл
перио да</w>
н р</w>
д нев
проис ходит</w>
законода тель
тив ным</w>
фор ме</w>
обслужи вания</w>
зе ме
сооб щения</w>
вла стей</w>
лимпи а
со лю
суще ствует</w>
жден о</w>
смер ти</w>
государствен ного</w>
нарко ти
агент ства</w>
уста навли
строи ть</w>
при дется</w>
из у
сво ими</w>
со ревно
про ходи
лко го
опы т</w>
по казыва
продолжа ет</w>
ва ющих</w>
у потреб
великобрита нии</w>
аре сто
ну л</w>
требо вания</w>
влен ы</w>
ва лось</w>
ви дов</w>
персо на
сторо н</w>
вы игра
ве т</w>
. 0
не га
рова ла</w>
ся т</w>
на пом
кра я</w>
реги онов</w>
режи ссе
вы бро
от да
работа ют</w>
не с</w>
дви жение</w>
в ступи
ше му</w>
мо ти
заседа ние</w>
интерфак с</w>
со чи</w>
глав ным</w>
щ и</w>
полож ений</w>
6 6</w>
мени ть</w>
ре ц
ва ле
осуществ лении</w>
комму ника
та кая</w>
рас че
ши ми</w>
втор ник</w>
тур ции</w>
бу ма
секто ра</w>
ско р
мож ем</w>
буду щем</w>
производ ство</w>
л га
докла д
разработ ке</w>
ви д</w>
пер ен
привле ка
о про
руковод ство</w>
тиче ского</w>
зи я</w>
п ро</w>
ль ности</w>
ста нов
фон д</w>
отнош ение</w>
госду мы</w>
но вым</w>
до ва
сси ю</w>
суб ъек
испол ни
ч ник</w>
а ф
конфлик та</w>
мар шру
ми тин
реши ли</w>
внутрен них</w>
ассамбле я</w>
рован ной</w>
обе споко
про я
у доб
потер я
ра ст
серге я</w>
сотрудниче стве</w>
клу б</w>
ди на</w>
де кла
а н</w>
заседа ния</w>
автомоби лей</w>
стави ли</w>
не мец
не те</w>
вне д
проси л</w>
ш у</w>
т ными</w>
четвер г</w>
стра на</w>
лич но</w>
то рин
ц ей</w>
сс ср</w>
м ур
росси ей</w>
гото ви
слу чи
ме сти
по ставлен
круп ных</w>
ц б</w>
мен е
по лез
бое ви
во му</w>
раз ру
6 8</w>
ми ру</w>
над ца
ра ти
ж ет</w>
с ку</w>
с нова</w>
внима ния</w>
по хо
о не
плани руется</w>
организа циями</w>
й дут</w>
жен ности</w>
контек сте</w>
кли ма
воскре сен
ге о
лю б
подоз рева
прави ло</w>
ста ра
хо ждения</w>
в шая</w>
та бли
исследо ваний</w>
пла на</w>
фор мы</w>
вла ст
публи ка
с от
обяза тельства</w>
ма ль
петербур ге</w>
пре вра
ориен ти
долж ность</w>
координа ции</w>
дале ко</w>
медведе в</w>
отмети ть</w>
в чера</w>
а лкого
зая вления</w>
осно ван
ст .</w>
ен ность</w>
зда ние</w>
оп ти
инвести ций</w>
самы й</w>
ту ру</w>
диви ду
следу ющие</w>
произо шел</w>
ро з
пра вах</w>
само е</w>
фри кан
глу бо
во круг</w>
д тп</w>
региональ ного</w>
лон до
че скими</w>
споко й
млр д.</w>
при еха
экспер ты</w>
зер бай
наш его</w>
проси т</w>
зербай джа
эк спе
по н
граждан ского</w>
ст ен
миро вой</w>
по ко
рас смотреть</w>
п ти
к нов
ж ные</w>
ж ением</w>
кон цеп
соста ва</w>
при шлось</w>
щен ы</w>
вы гля
т ви
по вре
б рази
участи ем</w>
ме ша
това ров</w>
а фрикан
сдела л</w>
дви жи
да лее</w>
зда ния</w>
дан ной</w>
вы ну
ба лан
о собо
х е</w>
удовлет во
бо й
м ной</w>
ли зи
сообща лось</w>
вши еся</w>
члена ми</w>
а уди
на ш</w>
режи ма</w>
по ис
зависи мости</w>
строи тель
т ских</w>
совмест но</w>
воз ника
милли она</w>
пробле ма</w>
ля ть</w>
усили й</w>
пе л
поль зу</w>
о ль
измен ений</w>
раз бира
приходи тся</w>
199 3</w>
с част
ступ ления</w>
евг ений</w>
ко пи
груп пе</w>
лен ь
россия н</w>
реали зо
упо мя
бо га
аб солю
е шь</w>
щ а</w>
ко вой</w>
д вое</w>
не правитель
к с</w>
от мен
государ ствами</w>
никола й</w>
бе д
б ре
ть я
со з
согла ш
тер на
по ступа
совеща ния</w>
потре бо
де рев
груп пи
бы вший</w>
о ба
пу те
кри ти
ро вании</w>
о пи
все ми</w>
вто ром</w>
ни ще
пре дела
се ть</w>
с наб
пол ной</w>
ин дивиду
еди но
таль ян
укреп ления</w>
шин г
три бу
ч ений</w>
ро да</w>
мони торин
з ен
т рас
т ского</w>
ка за</w>
ху д
согла шение</w>
при зы
исследо ва
по ве
хот ят</w>
бю джет</w>
ю ни
чу ть</w>
работа л</w>
пред назна
ст я</w>
газе та</w>
л ла
от личи
у деля
це ль</w>
спа са
во спо
э пи
ми ся</w>
про доволь
ру дни
хок ке
ра л</w>
води тель</w>
за плани
побе ду</w>
маш ины</w>
воен но
ри л</w>
щи ки</w>
матери аль
столи цы</w>
и ль
предложи л</w>
охра ны</w>
оказа лся</w>
ство вали</w>
у г
ля н
ми нима
люд ьми</w>
кла ды
п ин
кризи са</w>
дово льно</w>
ще н</w>
ле том</w>
ю рий</w>
на то</w>
оборудо вания</w>
област ях</w>
кита й</w>
тель ном</w>
требу ет</w>
реши ть</w>
за мен
нача л</w>
ли цен
ядер ного</w>
тон н</w>
социаль ного</w>
се мей
реши л</w>
значи т</w>
ком на
кла сси
продук тов</w>
фут боль
ли зо
гря з
вмест о</w>
теле фон
дру з
неде ле</w>
встре че</w>
х л</w>
переда чи</w>
ек ла
ва шинг
работ ников</w>
наб люд
и но
ощ у
послед нее</w>
необходи мые</w>
су пру
l .
у в
де р</w>
бы вшего</w>
кра т
но чь</w>
ро ждения</w>
при чем</w>
прода жи</w>
дека бре</w>
4 00</w>
осно вании</w>
наз вал</w>
значи тельно</w>
кто ра</w>
воскресен ье</w>
тю рь
т ность</w>
сла в
протя жении</w>
ограни чи
не возможно</w>
мужчи на</w>
ч ью</w>
жд ению</w>
потреб ностей</w>
отсут ствие</w>
ка ли
докумен те</w>
поку п
н ным</w>
печа т
за хва
д ни</w>
постоян ный</w>
раз гово
результа т</w>
б ен
ви ктор</w>
з во
о ф
вани ям</w>
санк ций</w>
большо е</w>
с да
до мов</w>
пусти ть</w>
каса ющихся</w>
функ циони
стра ну</w>
расследо вания</w>
не сти</w>
нару шение</w>
дан ного</w>
ност ями</w>
следстви я</w>
совер ши
жи тели</w>
второ го</w>
емы м</w>
следстви е</w>
наруш ений</w>
пар ти
сообще ства</w>
при над
правитель ством</w>
санк ции</w>
дума ю</w>
последни х</w>
1 50</w>
ближай шее</w>
пред ложен
образо вание</w>
со ли
ж ден</w>
е л
д нее</w>
особ ен
са д
рова на</w>
о ч
хозяй ства</w>
бо к</w>
депута т</w>
ва й
вы ез
работ ки</w>
г ло</w>
голосо вания</w>
ре кор
о лимпиа
материа лы</w>
ко бы</w>
зо ны</w>
наро да</w>
отмети ла</w>
пере ме
у т
тен ден
ль ными</w>
сезо на</w>
коммер сан
россий ская</w>
суббо ту</w>
сезо не</w>
а зии</w>
ва дца
у го
у си
испол нитель
различ ные</w>
го тов</w>
извести я</w>
ф ло
м ской</w>
тив е</w>
ци ен
боль шие</w>
пропа ган
много числен
лы м</w>
зая вля
с ного</w>
рекоменда ций</w>
губерна тора</w>
индивиду аль
р ению</w>
депута тов</w>
кита я</w>
столи це</w>
кор пора
си льно</w>
глав ного</w>
оле г</w>
кур с</w>
рав но</w>
помо чь</w>
под ня
ре сто
вши йся</w>
су де</w>
зна ко
бу дь</w>
а гре
обсу ждения</w>
не сен
совершен но</w>
соответ ственно</w>
мя г
ве ка</w>
а каде
само стоя
се ссия</w>
на стро
созда нии</w>
особ о</w>
президен том</w>
стои мости</w>
самы е</w>
до ме</w>
масшта б
запре щен
ъ ем
стави л</w>
се реди
став лен</w>
эта пе</w>
жда ть</w>
полити ке</w>
ф ин
не движи
т ков</w>
тиче ские</w>
религи оз
л ке</w>
из бра
де ше
та ет</w>
объ ем
ресур сы</w>
участво вать</w>
дополнитель ные</w>
б ран
по ле
в ся
н ением</w>
ж ене
все му</w>
на кануне</w>
кре м
заседа ний</w>
состоя ние</w>
реги онах</w>
обязан ности</w>
ка д
не н</w>
край не</w>
мо мента</w>
военно служа
оказа лись</w>
по мимо</w>
г ни
пря мо</w>
бло ки
ч ь
состави л</w>
минист ров</w>
чемпиона те</w>
фор миро
повы шение</w>
бо р</w>
ки но</w>
раз вед
зая ви
пе тен
предста вления</w>
cur r
ти ла</w>
филь м</w>
мигра нтов</w>
япо нии</w>
вос пита
ви ду</w>
сох ран
долго сро
нов ую</w>
неф те
па три
инфра структуры</w>
устойчи вого</w>
6 9</w>
финансо вой</w>
сен тябре</w>
парла мента</w>
аф гани
не одно
ван ной</w>
провед ении</w>
а вари
получи ла</w>
си н
во да</w>
пунк тов</w>
кон стан
сторо ну</w>
стано вится</w>
харак тера</w>
неде лю</w>
став ка</w>
аль терна
юще йся</w>
коро лев
1 2
каж дой</w>
оцен ке</w>
ве ли</w>
источ ников</w>
не ц</w>
последстви я</w>
се рии</w>
вше йся</w>
пре крас
би о
международ ным</w>
бо м
па ми</w>
департа мента</w>
7 ,
правоохранитель ных</w>
со прово
се мина
мо гу</w>
со бесе
жен а</w>
фо не</w>
интегра ции</w>
про вин
бан ков</w>
а м
орга нами</w>
э с</w>
ми ссии</w>
преступ лений</w>
ло га</w>
мо но
ц ар
смо гли</w>
сло жи
доби ться</w>
вне с
от ли
д ной</w>
зада чи</w>
сою з</w>
э к</w>
участ ник</w>
зо не</w>
догово рен
я кобы</w>
последстви й</w>
основ ной</w>
транспор тных</w>
вше гося</w>
озна чает</w>
закон чи
ц ем</w>
потен циаль
я ся</w>
с мыс
ти ка</w>
вкла д</w>
социаль но</w>
ш ве
вы сказа
женщи на</w>
те рак
ж ного</w>
ди й</w>
вы ро
боль шая</w>
перио ди
т ник</w>
ту да</w>
па циен
го сти
промышлен ности</w>
север ной</w>
ана то
ко раб
ни ке</w>
руковод ства</w>
н ский</w>
по хи
мар те</w>
плани рует</w>
пере се
п ля
обра щения</w>
вече ром</w>
ту р</w>
лиде р</w>
конкре тных</w>
полити ка</w>
ми я</w>
деся ти
специали зи
официаль но</w>
каса ющиеся</w>
ва ем</w>
зада ч</w>
о собы
ком понен
законо проект</w>
по ря
эксплу а
виде о
ар мии</w>
вы ход
печа ти</w>
согла сован
ката стро
даль ше</w>
полномочи й</w>
у к
род ствен
па ри
харак тери
про долж
совершен ство
ре мо
кар ти
ла д
дис ку
ком петен
сто к</w>
ир ку
т ке</w>
обла сть</w>
ча са</w>
ре волю
1, 5</w>
о прав
гла ве</w>
пред ъя
образо ва
ма лень
ва ку
жи ли
ше н</w>
техниче ского</w>
обы чно</w>
ита лии</w>
ре м</w>
виде о</w>
ар би
ми но
под ро
ну жда
пси хо
ш вей
о писа
дол го</w>
возра сте</w>
собы тий</w>
распростра нения</w>
доро ги</w>
последни й</w>
ав стра
генераль ная</w>
информа цией</w>
му зе
пи ло
га з</w>
уче та</w>
9 5</w>
дер ж
мо шен
д ени
распо лага
ба зы</w>
встре ча
имуще ства</w>
государ ствам</w>
раз о
афри ки</w>
с ные</w>
о ни
бу д
при бли
руководи теля</w>
сро ки</w>
з мом</w>
ю жной</w>
ж ный</w>
жен ность</w>
сум ма</w>
молодеж и</w>
р к</w>
петербур га</w>
и тальян
кла с
показа тель</w>
содержа ния</w>
из ъя
янва ре</w>
до нец
руковод ством</w>
вер то
ht m
раз до</w>
рай онов</w>
пре следо
пред стоя
дву мя</w>
расска зывает</w>
д ри
занима ться</w>
ма на</w>
встре ти
7 7</w>
про ходит</w>
автомоби ль</w>
напра влении</w>
пер вым</w>
д нем</w>
199 0</w>
заклю чения</w>
о лимпий
я з
а зербайджа
защит ник</w>
ка ким</w>
игро ков</w>
следу ющий</w>
утвержда ет</w>
мед лен
ма е</w>
кандида тов</w>
м ского</w>
ста и
объем лю
при вы
лиц о</w>
кла сса</w>
объе ма</w>
лож ения</w>
от чет
мо дер
ох ран
служ б</w>
ци к
тель ными</w>
заклю чи
предусматри вает</w>
он ы</w>
го вари
воен ной</w>
со единенных</w>
ри ца
раи ль
тре х
ка нал</w>
посред ством</w>
ма ло
про смо
че сть</w>
ро шенко</w>
при мени
те п
отде ла</w>
ти па</w>
оши б
регистра ции</w>
мур ман
функ ции</w>
кры ма</w>
упомя ну
отде льных</w>
ку н
генераль ный</w>
защи ту</w>
ост ров
д вадца
поддержа нию</w>
ге р</w>
принима ет</w>
мно же
до ля</w>
потер пе
ба зо
ру ются</w>
из раиль
p .
реш ении</w>
ба зе</w>
не много</w>
но вое</w>
вырази л</w>
рован ного</w>
им пор
право вой</w>
кон вен
турни ра</w>
подготов ку</w>
жи ву
у ника
лан дии</w>
состави ла</w>
7 .
про шед
пре о
отмети ли</w>
пенси он
жа ют</w>
ве н</w>
ди к
желез но
специаль ный</w>
ожида ется</w>
груп пу</w>
миниму м</w>
ство вал</w>
вну три</w>
ря ду</w>
рас кры
мень шин
зна мени
то сти</w>
гос пита
пассажи ров</w>
худо ж
коман де</w>
в ского</w>
прове ли</w>
бело ру
смо три
за ле</w>
ко вых</w>
об ходи
моск ву</w>
экспер т</w>
0 0
е мая</w>
догово ра</w>
собесе дни
приня ла</w>
бе зу
требо ваний</w>
по вто
бо лга
техниче ской</w>
о фор
основ ные</w>
жерт в</w>
образ и
принци пов</w>
практи ки</w>
пес ни</w>
стату с</w>
в ский</w>
режи м</w>
ва рии</w>
тив ное</w>
уве рен</w>
за в
до но
прось бой</w>
л ла</w>
мо з
назна чения</w>
не извест
о ло
нау ки</w>
ть ми</w>
щи еся</w>
рав но
сво е
благо прия
прав да</w>
со ц
8 ,
сер д
предоста вления</w>
ма ри
го раздо</w>
из обра
ше к</w>
щи ми</w>
р ных</w>
де тьми</w>
мест ного</w>
ти ях</w>
сим во
от рица
пр оон</w>
се ме
та мож
на пада
хо дом</w>
написа л</w>
к в
я че
бе спо
прилож ение</w>
дополнитель ных</w>
жиль я</w>
устрой ства</w>
консульта ции</w>
дан ном</w>
фак ту</w>
метр о</w>
со вой</w>
тя м</w>
та р</w>
под ход</w>
коман ду</w>
ко смо
д я</w>
уров нях</w>
за фикси
про комменти
й ского</w>
8 5</w>
мо л
за рубе
раз би
ти ва</w>
си бир
реш ению</w>
сооб щение</w>
пози цию</w>
ноя бре</w>
сси ей</w>
ка ра
дина ми
ру ки</w>
зыва ют</w>
полити ку</w>
горо дов</w>
сожа лению</w>
апре ле</w>
ресто ра
поря док</w>
зна ю</w>
модер ни
ле те
международ ном</w>
зада ча</w>
с н
нача льник</w>
х у</w>
наш ли</w>
оборо т</w>
чен ный</w>
устано вить</w>
би ли
кор енных</w>
с б</w>
го ря
созда нию</w>
ию не</w>
ссы ла
энер го
уве до
швей ца
кла д
автомоби ля</w>
8 .
пла т
наказа ния</w>
министер ство</w>
о забо
ai f
ту га
собствен ности</w>
удовлет вор
сообща ется</w>
обви нения</w>
опреде ления</w>
ща ет</w>
цен а</w>
националь ном</w>
приве сти</w>
воз ме
экспе ри
мо гла</w>
пер вое</w>
м ек
поня ть</w>
сказа ла</w>
д не
л ку</w>
финансо вые</w>
ту ю</w>
ла гер
вол го
исключи тельно</w>
пла ты</w>
ча ще</w>
да ют</w>
нача ть</w>
воен ные</w>
че ства</w>
носи ть</w>
не та</w>
коммерсан т
отме чается</w>
ше сти</w>
част ью</w>
министер ства</w>
9 ,
сцен а
er v
контра кт</w>
м к</w>
ка нала</w>
со стоит</w>
се т</w>
ве дет</w>
про ез
р ю</w>
молоды х</w>
равен ства</w>
мо ре</w>
но вая</w>
выпол ня
де та
це ля
все объемлю
об ли
су дов</w>
с выше</w>
фак тически</w>
ущер б</w>
пла тить</w>
н ная</w>
мо стью</w>
погиб ших</w>
вооружен ных</w>
отме чают</w>
се й</w>
на ра
т имо
полож ении</w>
фи ли
по рошенко</w>
ви та
клима та</w>
ж ности</w>
люд ям</w>
чи ки</w>
вариан т</w>
хо ду</w>
aif .ru</w>
ссе й
ки е
стол кнов
пре пода
кре пи
по пыта
ок тябре</w>
рабо чей</w>
ис че
о казывать</w>
нару ши
ве ло
ф рон
с ведения</w>
коммерсант ъ</w>
международ ные</w>
от пу
инициа тивы</w>
глав ное</w>
говори ли</w>
ле кар
вос ь
делега ции</w>
приня тие</w>
сокра щения</w>
специали сты</w>
поправ ки</w>
на вер
кра тно</w>
х ар
ли ш
использо ванием</w>
рекомен дует</w>
мест ные</w>
противо ре
вы хода</w>
ра ви
не р</w>
испа нии</w>
ку бка</w>
коми сса
двух годи
7 2</w>
сум мы</w>
состоя нию</w>
в ку</w>
республи ке</w>
комплек са</w>
прокура туры</w>
филь ма</w>
моде ли</w>
с парта
ди ла</w>
хо м</w>
вы дви
вла сть</w>
об станов
лен о</w>
э й
обществен ного</w>
с ке
спор т</w>
приобре т
механиз мов</w>
но вом</w>
зависи т</w>
кра си
э кра
за про
состоя ния</w>
москов ской</w>
е сте
больш ую</w>
процеду р</w>
рь е
ли тера
пред стоит</w>
над зора</w>
лет них</w>
ра ция</w>
безопас ность</w>
показа телей</w>
м оон
при ез
скон ча
теа тра</w>
февра ле</w>
совершен но
мен том</w>
связ ь</w>
но мер</w>
очеред ной</w>
режи ме</w>
причи ной</w>
рефор мы</w>
пу ть</w>
увели чение</w>
л око
иг ру</w>
сред нем</w>
рабо чая</w>
пло хо</w>
с нима
рассказа ли</w>
иг ры
ен ные</w>
до ходов</w>
ле ц</w>
делега ция</w>
сло вно</w>
ложи ть</w>
следу ющем</w>
ско хозяй
э ваку
ен ко</w>
носи т</w>
семе й</w>
нор ве
вв п</w>
европей ского</w>
со действие</w>
соблюд ения</w>
в печат
цион ное</w>
проек ту</w>
рассказа ла</w>
ка би
перво нача
отде ления</w>
у тром</w>
зе лен
расши рения</w>
жиз нен
само лета</w>
э фи
возду ха</w>
пострада вших</w>
объе ме</w>
анали за</w>
а раб
боль шим</w>
заклю чается</w>
с ва
вы ска
по льзу
по к</w>
стать я</w>
че скому</w>
а на</w>
те т</w>
рован ный</w>
слож ности</w>
п лю
боро ны</w>
са ма</w>
элек три
консульта ций</w>
про тив
пунк ты</w>
дон ба
сдела ли</w>
сто ль</w>
се кун
настоя тельно</w>
ющи йся</w>
ту рец
федераль ного</w>
наш а</w>
расследо вание</w>
американ ских</w>
состави т</w>
побе ды</w>
сту ю</w>
веще ств</w>
ограни чения</w>
. or
щ ением</w>
высо кого</w>
сам ми
р ной</w>
показа тели</w>
ра до
мек си
докла дов</w>
а сси
пере жи
поддержи вает</w>
еха ть</w>
сло жно</w>
ни ла</w>
ки па
лиде ров</w>
интере с</w>
при е
хо л
вы бра
началь ника</w>
ин нова
клиен тов</w>
воен ного</w>
д вер
та тья
ствен ными</w>
оппози ции</w>
ль го
ли ги</w>
герма ния</w>
рас смотре
призна л</w>
дела ет</w>
прош ли</w>
по обеща
способ ности</w>
ат мо
отме ча
сче та</w>
об ща
в ру
пита ния</w>
проис шествия</w>
част ных</w>
до говори
и тар</w>
199 2</w>
ли шения</w>
цион ная</w>
по ля</w>
м ных</w>
способ ствовать</w>
сель скохозяй
акти вов</w>
бо м</w>
измени ть</w>
семь е</w>
та ция</w>
7 3</w>
то на</w>
верхов ного</w>
ч лен</w>
ты ми</w>
лег ко</w>
ля бин
б к</w>
те ров</w>
га ть</w>
ни ж
ю ся</w>
обу чения</w>
сче том</w>
на прави
ь ян
взя ть</w>
приз вал</w>
счита ть</w>
террито рию</w>
ль ской</w>
в ка</w>
при ступи
ер у</w>
руб ля</w>
сотрудни к</w>
присоеди ни
ба ссей
гра ду
коро т
фо то</w>
фин лян
поли ция</w>
ст ра</w>
ци пли
эт ниче
добро во
ис пан
ен ного</w>
университе та</w>
грани цы</w>
ро сто
деся ть</w>
га я</w>
ни будь</w>
право су
про чи
директо ров</w>
госпо дина</w>
подро ст
израи ля</w>
журнали стов</w>
шта тов</w>
го ре
шо у</w>
потре бу
чен ного</w>
щен ных</w>
отрас ли</w>
предо ставить</w>
напра вля
лай н</w>
об следо
фор м</w>
официаль ных</w>
само лет</w>
же б
це ремо
ку з
ф аль
пользова телей</w>
са ми
6 00</w>
одно временно</w>
ро зы
дру га</w>
ни дер
про шел</w>
ни ями</w>
пя ти
еги п
пре пара
те пло
собы тия</w>
ря ть</w>
примен ение</w>
гово го</w>
р ги
взно сов</w>
восто ке</w>
ч ными</w>
специаль ных</w>
горо дах</w>
а ген
стви ем</w>
случа й</w>
оборудо вание</w>
ке р</w>
де ре
яз ви
э р
международ ный</w>
из ложен
суб си
поз дра
ж ом</w>
спек так
кампа нии</w>
те му</w>
ва лен
от казыва
по те
ма ть</w>
креди то
возбу ждено</w>
финанси рование</w>
е лена</w>
к ет</w>
праз д
и сте
афри ке</w>
щ у
щи к</w>
экспер ти
тек ст</w>
вы деля
квали фици
ско ре</w>
да тай
го стей</w>
эксплуа тации</w>
хо тели</w>
вы шел</w>
ть десят</w>
практи ке</w>
чер но
ван ные</w>
сол да
оружи е</w>
верну ть</w>
язы ке</w>
луч ших</w>
ть ю</w>
с бер
гро зи
отве ча
со ба
возра ста</w>
став ке</w>
9 .
законода тельство</w>
пла ны</w>
де ло
ва ющие</w>
и д
т ников</w>
ко ль
проводи тся</w>
друго м</w>
те о
демон стра
.or g</w>
дей ствует</w>
деятель ностью</w>
осуществля ть</w>
на таль
у ско
зем ли</w>
политиче ского</w>
свед ению</w>
изда ние</w>
в не</w>
непосред ственно</w>
секто ре</w>
представлен ы</w>
шен ных</w>
обще м</w>
причи н</w>
по жела
ме ра</w>
гру зии</w>
до ле
представи телями</w>
голо сов</w>
прием ле
интере сы</w>
еха л</w>
исто рия</w>
н бур
ближай шие</w>
каче ство</w>
правосу дия</w>
бо к
вы год
слы ша
де фици
настояще го</w>
во семь</w>
за л</w>
2 5
маши н</w>
выступи л</w>
друго го</w>
охва ты
нище ты</w>
предлага ется</w>
раз рабаты
фран ция</w>
наказа ние</w>
ку ро
ки ри
дорож ного</w>
пра вления</w>
при шли</w>
х ор
мы ми</w>
вы йти</w>
а .</w>
группо й</w>
всемир ной</w>
кре ст
во сти</w>
дис ципли
совеща нии</w>
та кую</w>
наличи е</w>
преступ ности</w>
до ве
ос ен
д д</w>
депута ты</w>
нор м</w>
анали з</w>
территори аль
ход я</w>
кварти ры</w>
верну ться</w>
на ла
специаль ного</w>
пись мо</w>
у язви
про дли
бе ль
ры в</w>
ки стана</w>
сни жение</w>
мо ро
реш ением</w>
больш ей</w>
к стати</w>
тек ста</w>
чинов ников</w>
соб люда
цион ным</w>
р .</w>
занима ется</w>
содержи тся</w>
инвали дов</w>
о деж
посо би
че ст
раз ъя
ки н
ни н
ва емых</w>
приня ты</w>
интере сов</w>
декла рации</w>
слу жеб
нача ло</w>
ки стан</w>
продук ты</w>
за гряз
чемпи онов</w>
напомина ет</w>
ию ле</w>
сво ему</w>
получа ть</w>
серьез ные</w>
арм ении</w>
бе дстви
подгото влен
9 9</w>
наро до
по сла
занима ет</w>
по м</w>
шко ль
принци пы</w>
нидер лан
граждан ских</w>
глав ных</w>
выпол нять</w>
а варии</w>
массо вой</w>
па х</w>
пред положи
сро ка</w>
европей ских</w>
кры м</w>
т ский</w>
ре е
члена м</w>
губерна тор</w>
смо г</w>
ч т
па вел</w>
ле вой</w>
оказа лось</w>
по ступ
зи ровать</w>
ак ционе
жа л</w>
пре бы
на че</w>
хо датай
сти мули
шен ы</w>
не совершенно
юще гося</w>
7 6</w>
ради о
в ходит</w>
з ин
дву сторон
ис пы
ком фор
тя т</w>
количе ства</w>
техниче ских</w>
вани ях</w>
ассамбле е</w>
ин жен
тив ная</w>
у худ
199 1</w>
предо ставлен
зо к</w>
г еди
чи т</w>
ти хо
мино бороны</w>
ви на</w>
оль га</w>
исто рию</w>
к ер
ле они
у ж</w>
ре конструк
мэ ра</w>
финан сов</w>
по зна
ча х</w>
с про
у л.</w>
возгла вля
потреб ности</w>
ста лки
хо чу</w>
эксплу ата
т в</w>
город ского</w>
взгля д</w>
объя вил</w>
вспо мога
авто ма
с форми
с пар
е эк</w>
ме ч
тив у</w>
в ь</w>
за куп
прави льно</w>
долж ностей</w>
вы ше
докла ды</w>
авгу сте</w>
капита ла</w>
ре ферен
сред не
сти ть</w>
зна ет</w>
до р</w>
авто р</w>
ре к
необходи мых</w>
роди телей</w>
вне сен
нор мы</w>
оцен ку</w>
не про
к б</w>
уз бе
add .
та ть</w>
с хе
язы к</w>
на конец</w>
раз ные</w>
н ное</w>
юн е
неодно кратно</w>
треть ей</w>
тр ы</w>
зако ном</w>
кв .</w>
ли за
неф тя
ве ща
по степен
ак туаль
сохра нить</w>
ле ги
конкур са</w>
лиде ра</w>
а да
проек те</w>
успеш но</w>
на ко
ги бе
мужчи ны</w>
комплек с</w>
на сколько</w>
сло во</w>
пример у</w>
середи не</w>
судеб ных</w>
увели чить</w>
на имен
важ ное</w>
програм мам</w>
на бра
ров ка</w>
времен ем</w>
связа но</w>
после дова
му т</w>
ба ми</w>
л лек
отпра вля
лет няя</w>
отказа лся</w>
торговл е</w>
вле ка
чи ст
сезо н</w>
задержа ли</w>
соглаш ений</w>
подвер га
подтвер дил</w>
относя тся</w>
наш у</w>
до р
ф рак
сме н</w>
ассоциа ции</w>
ля ет</w>
ли дер
мат чей</w>
следу ющих</w>
7 4</w>
дипло ма
к ви</w>
не ожи
с начала</w>
региональ ном</w>
д п
с ку
1 2.
государ ством</w>
воро та</w>
мошен ниче
с формули
опреде ли
жили щ
не у
э сто
жден ных</w>
в яче
вы во
корре кти
вид но</w>
реги он</w>
не доста
вани ями</w>
абсолю тно</w>
выбо р</w>
замести теля</w>
партне ров</w>
совеща ние</w>
на ва
вы рос
вы бор
на груз
са ни
воро не
в меша
ры й</w>
гражда не</w>
к ле
7 1</w>
влия ние</w>
ск р</w>
требу ется</w>
зи ат
воспо льзо
руководи телей</w>
те н</w>
жа ли</w>
действи и</w>
ри ев</w>
зени т</w>
э кипа
об усло
купи ть</w>
а й
вы дели
боль ших</w>
гово ря</w>
ба нк
ль ность</w>
испы ты
за х</w>
заво е
объ единен
полицей ских</w>
настоя щий</w>
че ство</w>
сфер ы</w>
т во
пол ном</w>
р ф
исследова тель
га н</w>
наме рен</w>
об лег
стол кну
профи ла
казах стан</w>
к г</w>
с вет
кие ве</w>
досто ин
поня тно</w>
ин дек
пострада ли</w>
ж о
игра ет</w>
конкре тные</w>
ки ев</w>
ни ки
при были</w>
восто чной</w>
об зора</w>
заня тости</w>
ши н</w>
заво да</w>
музы ка
заклю чение</w>
жда ет</w>
премь ера</w>
эффектив ного</w>
а и
сегодняш ний</w>
прогре сса</w>
пре се
при ро
за ку
го ри
ствен ную</w>
дмитри я</w>
жен о</w>
бли оте
пол ного</w>
в ри
труд но</w>
шта б</w>
включа ет</w>
ь ев</w>
сси в
сокра ти
ност ях</w>
об стре
зна чения</w>
кризи с</w>
ма то
референ ду
7 8</w>
нен ы</w>
я ро
ру ющих</w>
ос на
в перед</w>
поддерж ка</w>
м м</w>
емо м</w>
обществен ности</w>
ф ов</w>
государ ству</w>
избе жать</w>
об щих</w>
важ ность</w>
со действовать</w>
при вер
сокра щение</w>
сообще ство</w>
о гра
б рен
обществен ной</w>
о ди
екатери нбур
с мы
догово р</w>
логи и</w>
обслужи вание</w>
опти ми
3 0
ба ра
че лябин
в т
обяза тельно</w>
е вой</w>
до то
юще му</w>
8 00</w>
в веден
трам п</w>
требо ваниям</w>
ба х</w>
та ком</w>
озабо чен
обеспечи вать</w>
сотрудни ка</w>
встре чу</w>
топли ва</w>
до пуска
поз же</w>
сут ки</w>
еди ной</w>
остро ва</w>
трен ера</w>
ос мо
рай он</w>
с вер
стра жей</w>
посе ти
пробле му</w>
науч но</w>
спар так</w>
край ней</w>
т вори
цен тров</w>
те та</w>
раз мер</w>
угро зы</w>
отнош ению</w>
тр яс
заинтере со
иг ра</w>
в ене
2 ,5</w>
националь ные</w>
пар тия</w>
компью тер
тиче ская</w>
конститу ции</w>
любо м</w>
россий ским</w>
зи м
ар ген
фили п
много сторон
следу ющим</w>
ма тер
й ской</w>
се ло
де тям</w>
за ми</w>
д ный</w>
под клю
интере с
а де
лет ней</w>
оста нов
встре ча</w>
политиче ские</w>
суще ственно</w>
ди зай
игра л</w>
служ бу</w>
во ло
ру я</w>
пере ход
предлож ений</w>
с уда
но мина
ц кий</w>
об ер
ли т
вале рий</w>
ры м</w>
тыся че
мл ение</w>
комму на
за ка
обнаружи ли</w>
продолжа ют</w>
обще ство</w>
фору ма</w>
пусти ли</w>
благо да
учеб ных</w>
шко л</w>
до ва</w>
ну ли</w>
просмо тров</w>
журнали стам</w>
по верх
опас ности</w>
оч ков</w>
пунк том</w>
ти к</w>
пра ве</w>
бизне смен
иг р</w>
емо е</w>
выпла ты</w>
правитель ству</w>
ря де</w>
приня тых</w>
любо го</w>
нов ения</w>
счита ется</w>
ребен ок</w>
э мо
собира ется</w>
зем ле
д э
содержа ние</w>
посо ль
чен ной</w>
тре тий</w>
ющи мися</w>
ш ку</w>
ес со
улуч шения</w>
опреде лить</w>
аэропор та</w>
поддержи вать</w>
м нения</w>
результа там</w>
скан да
у мышлен
изда ния</w>
на сле
ла на</w>
у м</w>
ро во
задержа н</w>
реда к
пала ты</w>
. 00</w>
с пас
уди ви
арби тра
макси м</w>
финансо вого</w>
ре ак
функ ций</w>
по в
испол нение</w>
теку щего</w>
граждан ской</w>
мета л
ству ющих</w>
отме тим</w>
ж ды</w>
тиче ский</w>
та кими</w>
ред ко</w>
вер са
международ ными</w>
свобо ду</w>
разви тии</w>
иг ре</w>
ш вили</w>
должност ных</w>
у и
су вер
п .</w>
пер вая</w>
источ ники</w>
ве р</w>
в ряд</w>
се дь
бли ж
орга на</w>
вер сия</w>
кон суль
про демонстри
выступ ления</w>
ф сб</w>
появи лась</w>
ч ности</w>
по дели
ба ш
го дом</w>
до стой
исклю чением</w>
проси ла</w>
ти фика
ка ри
по ставки</w>
кор пу
диа лога</w>
вз рос
ира н</w>
конфлик тов</w>
стар то
вы ру
послед ствии</w>
бюдже тных</w>
спу стя</w>
ша ется</w>
израи ль</w>
уве лич
па в
за слу
любы е</w>
про йти</w>
важ ней
щен ко</w>
отличи е</w>
ви ться</w>
хра ни
резолю ция</w>
высо кой</w>
ствен ном</w>
про спек
в ся</w>
па ке
при шел</w>
су ме
о па
не дав
дей ство
участ никами</w>
ме тра
действи ю</w>
пы ток</w>
к та
серьез но</w>
проводи т</w>
8 2</w>
я сно</w>
официаль ного</w>
8 7</w>
боль ницу</w>
м ск</w>
обществен ных</w>
от ставку</w>
случа й
ри сти
эк стреми
полу чение</w>
ино гда</w>
бо ра</w>
вед ении</w>
ци и
ежегод но</w>
собра ния</w>
при ну
се тей</w>
й т</w>
8 6</w>
стра ш
са ло
провер я
у про
му суль
ти ровать</w>
хо ть</w>
ры е</w>
чемпиона т</w>
д ональ
тра геди
ен ный</w>
ж у
исче з
буду щее</w>
газе ты</w>
из гото
н ными</w>
алексе я</w>
связа ны</w>
корруп ции</w>
w p.
ново сибир
у бы
к лон
американ ского</w>
оста ются</w>
у мер
ущер ба</w>
рекомен ду
бар село
ча т</w>
в ходят</w>
аде ква
1 20</w>
дни х</w>
жден а</w>
до мо
убий ства</w>
подписа л</w>
ид ти</w>
б рю
компенса ции</w>
ги б
ма рия</w>
задол женности</w>
пожа лу
а ми</w>
возмож ных</w>
боро ться</w>
шко ле</w>
стаби льности</w>
правитель ств</w>
наз вание</w>
а но
ком а</w>
сло в</w>
ли цам</w>
цо ва</w>
регуляр но</w>
бу ду</w>
во все</w>
площа дь</w>
подчерки вает</w>
кодек са</w>
вы бира
укреп лению</w>
o in
внутрен него</w>
коман ди
ме рах</w>
обрати лся</w>
заво д</w>
бан ки</w>
противо стоя
ра ун
пунк ту</w>
ку ра
судеб ного</w>
выпол нение</w>
ав ст
8 3</w>
вне сти</w>
дальней шего</w>
с ви
при остано
деся ти</w>
щи ка</w>
ми ра
ж ем</w>
шта ты</w>
э ль</w>
асси гно
кон цу</w>
за бы
п ак
реб я
поги б</w>
наз ванием</w>
не сет</w>
законо в</w>
международ ное</w>
за креп
дипло матиче
ле р</w>
ну ко
ре гла
рассматри вать</w>
су ти</w>
опреде ление</w>
вы зывает</w>
оружи ем</w>
экономи ке</w>
сбо ра</w>
н ную</w>
ма стер
о гово
ван ный</w>
наро д</w>
по га
сбор ная</w>
з и</w>
кри тери
расши рение</w>
д ят</w>
за работ
лени н
ве тера
име ющих</w>
выбро сов</w>
тор же
зи н</w>
каж дом</w>
орга нах</w>
пред по
анд рея</w>
по влия
вероя тно</w>
при зыва
де ль
соответству ющим</w>
украин ских</w>
мин фи
. aif.ru</w>
прилож ения</w>
и дут</w>
электро нной</w>
вой ск</w>
отнош ениях</w>
ч ке</w>
распростра нение</w>
находи лся</w>
подготов ка</w>
ули цы</w>
лен ные</w>
град ской</w>
8 8</w>
пел ля
подоб ные</w>
би ологи
со сре
ос ла
те ла</w>
о за
жен ных</w>
из уча
искус ства</w>
раз решения</w>
прогно зи
механиз ма</w>
эти ми</w>
ла бо
сде лки</w>
миллиар дов</w>
му з
проте ста</w>
фор вар
произо шед
стать ей</w>
az az
ша ют</w>
доро г</w>
об мена</w>
жи лых</w>
дол ю</w>
под хода</w>
ме тро
выра жает</w>
ра сту
про з
прош лой</w>
9 6</w>
жи да
тя брь</w>
се т
называ ют</w>
ради ка
мо ва</w>
ста нут</w>
эта п</w>
ре шать</w>
работа ли</w>
участ ника</w>
любы х</w>
гра мо
повы сить</w>
с би
20 20</w>
ми ю</w>
го ра
ви ды</w>
эта па</w>
сель хо
м с</w>
бы то
механиз м</w>
за пол
тив ную</w>
послед него</w>
си и</w>
футбо лу</w>
ве щи</w>
проис хождения</w>
укреп ление</w>
т ща
об а</w>
живо тных</w>
восстано вления</w>
дума ть</w>
петербур г</w>
вопро сах</w>
появи лись</w>
пси хи
жа я</w>
р бк</w>
подоб ных</w>
террито рий</w>
шин у</w>
напом нил</w>
п ры
об мен</w>
ходи ли</w>
об щий</w>
гре ции</w>
об зор</w>
гуманитар ной</w>
ры но
форми рования</w>
проси ли</w>
провед ению</w>
по тра
осно ва
белару си</w>
под москов
мо ей</w>
повы шению</w>
из би
по может</w>
удо сто
фестива ля</w>
важ ным</w>
получа ют</w>
самостоя тельно</w>
в щи
региональ ные</w>
буду щего</w>
по про
ге ор
бор ту</w>
произо шла</w>
выступа ет</w>
ст ек
ин дии</w>
ли бе
оказа лась</w>
ин ду
полицей ские</w>
са удов
в .</w>
kp .ru</w>
8 1</w>
л ениях</w>
сель ского</w>
американ ской</w>
стро м</w>
профессиональ ной</w>
до не
ва сили
ка в
стандар тов</w>
эффектив ность</w>
ки п
ре и</w>
тури стов</w>
оста лись</w>
нара щи
прош ла</w>
механиз мы</w>
ремон т</w>
специаль ной</w>
медицин ских</w>
бю ро</w>
способ ность</w>
строй ки</w>
ви я</w>
ст ь
до мой</w>
разору жения</w>
до х
меня ть</w>
да вление</w>
на циона
плани рования</w>
пя тьдесят</w>
и ван</w>
официаль ном</w>
с ра
специаль но</w>
про ка
компани ей</w>
ин спек
сти хи
прогре сс</w>
коло нии</w>
ха н
стави т</w>
воз действия</w>
фина ле</w>
напра вления</w>
чет ко</w>
мето дов</w>
уч ени
устрой ство</w>
со че
7 9</w>
сю да</w>
прокура тура</w>
борь бу</w>
м с
увели чения</w>
держа ть</w>
ко али
ти нен
бо ли
трав мы</w>
инвесто ров</w>
независи мости</w>
сты х</w>
прода ж</w>
у во
го нь</w>
авто но
друго е</w>
взры в
ва силь
чен ным</w>
предоста вление</w>
рабо то
м ления</w>
че в</w>
затра ги
ри ли</w>
сою з
причи не</w>
писа л</w>
информа ционно</w>
военнослужа щих</w>
ито ги</w>
сред е</w>
с но
увиде ть</w>
тю мен
организа цией</w>
сооб раз
лицен зи
оказа ние</w>
относи тся</w>
отчет ности</w>
па м</w>
ог ня</w>
ви т</w>
бело рус
ран ение</w>
причи ны</w>
и наче</w>
ника кого</w>
9 2</w>
вопро сами</w>
особо е</w>
запре т</w>
т с</w>
большо го</w>
ни как</w>
о провер
завер шения</w>
8 4</w>
утвер ждения</w>
в вести</w>
сотрудни ками</w>
худо же
ви зо
транспор тного</w>
ви да</w>
сосре дото
б дд</w>
2 50</w>
уни верса
окру га</w>
производи телей</w>
хол дин
ка кое</w>
публика ции</w>
урегули рования</w>
тысяче летия</w>
на стаи
полага ет</w>
пунк тах</w>
сто го</w>
ма ли</w>
са ха
потенциа л</w>
не сли</w>
фа на
1 1.
кур са</w>
центра льной</w>
то вари
белору ссии</w>
крупней ших</w>
та лан
реа били
мя ч</w>
ле чения</w>
про све
номе ра</w>
вы шли</w>
кры му</w>
суще стви
мл ю</w>
сопрово жда
ко сти</w>
учены е</w>
зло употреб
ша г</w>
опы та</w>
ф ла
учрежд ениями</w>
казах стана</w>
ок купи
на шим</w>
вклю чить</w>
ос ве
си т</w>
про йдут</w>
избира телей</w>
сот ни</w>
ве б</w>
ле в</w>
связ ей</w>
моде ль</w>
ноя р
наталь я</w>
протоко ла</w>
ско м
осуществля ется</w>
максима льно</w>
существу ющих</w>
татья на</w>
9 8</w>
экономи ческие</w>
приме т</w>
психо логи
ви кто
г да
у ра
обра щение</w>
важ ных</w>
ком би
наш ем</w>
по втор
оказа нию</w>
цион ную</w>
хор ва
убий ство</w>
ги бдд</w>
стату са</w>
получи т</w>
х ро
7 00</w>
предста вление</w>
отве тил</w>
наркоти ков</w>
зна ют</w>
нынеш него</w>
су э
су дом</w>
соответству ет</w>
моби льный</w>
нау к</w>
ис к</w>
ме т</w>
гра н
пере чень</w>
пла нов</w>
но чью</w>
лу мби
сер би
откры ть</w>
ко ст
памя ти</w>
пись мен
ла н</w>
да р</w>
гла влен
ш ением</w>
сохра ня
фина ла</w>
ин спе
пор туга
пе тр</w>
ра ди</w>
направлен ных</w>
находи лись</w>
р ные</w>
депута та</w>
ди м</w>
корреспонден т</w>
мар ки</w>
у ма</w>
разви тых</w>
убе жи
та джи
це ло
мо гло</w>
зна ть</w>
организа цию</w>
да го
институ та</w>
брази лии</w>
официаль ные</w>
право к</w>
ни ей</w>
9 3</w>
подразде ления</w>
от лич
миро вого</w>
би блиоте
сове том</w>
энерге тики</w>
теле вид
тель ством</w>
тер я
м лад
ля ция</w>
гео графи
о существи
ох от
направлен ные</w>
д ю
медицин ской</w>
бар ре
со ва</w>
ко ри
до пусти
привет ствует</w>
т .</w>
замеча ния</w>
е мости</w>
закон у</w>
жда я</w>
угро зу</w>
кварта ле</w>
множе ство</w>
пла не
орга н</w>
д я
и ден
конфлик т</w>
с фе
добро воль
ф и</w>
газпро м</w>
су дей</w>
ша х
он лайн</w>
пригово р</w>
су до
рас счита
сотрудниче ству</w>
музы кан
коман д</w>
пар тий</w>
с сы</w>
попа л</w>
жела ние</w>
поез дки</w>
прокомменти ровал</w>
оза главлен
ка кого</w>
зени та</w>
ры ва</w>
част ного</w>
бу ква
не пре
ви а
банк ро
следу ющего</w>
сред ствами</w>
основ ным</w>
уда р</w>
пре мии</w>
адвока т</w>
сторо на</w>
оцен ка</w>
т ские</w>
догово ров</w>
про ходят</w>
учрежд ениях</w>
недвижи мости</w>
прибы ль</w>
ж ской</w>
глав ной</w>
ва ш</w>
а х
под лежа
регули рования</w>
а то
та и
а м</w>
си лами</w>
представля ть</w>
ми ром</w>
михаи ла</w>
у полномо
плен ар
х ло
фор му</w>
си ли</w>
име ли</w>
составля ют</w>
в ъез
сай та</w>
предупре ждения</w>
за ча
инте ллек
кило метров</w>
те бя</w>
тро е</w>
вы ход</w>
д ных</w>
ф ар
приня т</w>
ни ям</w>
готов ности</w>
име ется</w>
сн г</w>
объек ты</w>
пре зен
оцен кам</w>
о ном</w>
цен е</w>
настояще му</w>
испыта ния</w>
а ль</w>
распростра нен
счита ю</w>
н п
. html</w>
оди но
требу ют</w>
сред него</w>
препода ва
принад лежит</w>
сни жения</w>
выступи ли</w>
язы ка</w>
беспла тно</w>
вы зо
пе тро
про голосо
мен те</w>
и рина</w>
фак торов</w>
ва йте</w>
сы н</w>
ни кова</w>
8 9</w>
ира ка</w>
ди ни
под чи
дела ют</w>
нало гов</w>
с прави
с мар
большин стве</w>
ни ках</w>
кварти ре</w>
щен о</w>
под ряд</w>
при вод
од ному</w>
й ных</w>
чен ными</w>
9 4</w>
е .</w>
дан ному</w>
обеспечи вает</w>
пись ма</w>
оке ан
структу р</w>
се ми</w>
до вой</w>
бере мен
отве чает</w>
мониторин га</w>
сооб щ
бе н</w>
упо мина
боль ницы</w>
авто ри
куро р
обрати ться</w>
обще е</w>
трам па</w>
обы гра
представля ют</w>
х ле
гото ва</w>
соединен ные</w>
я вно</w>
нд р</w>
специаль ные</w>
снаб жения</w>
жа ется</w>
мар ке
отказа ться</w>
продолжи ть</w>
администра тивных</w>
ль ному</w>
ста я</w>
ко сть</w>
ве с</w>
не уда
отсут ствия</w>
ита лия</w>
раз личи
анато лий</w>
учиты вая</w>
предоста влении</w>
миллиар да</w>
взаимо действия</w>
региональ ной</w>
us si
представля ется</w>
провер ку</w>
медлен но</w>
зая влении</w>
граду сов</w>
ко вые</w>
вспо мина
украин у</w>
сторо не</w>
болель щиков</w>
ли ши
вто рых</w>
са н</w>
представлен а</w>
обязан ностей</w>
9 7</w>
я пон
э м
раз уме
о созна
катего ри
полномочи я</w>
откры тия</w>
стратеги й</w>
су пер
юри с
бу ю</w>
кни ги</w>
намер ены</w>
дове рия</w>
власт ями</w>
те матиче
лич ности</w>
извест ный</w>
ла нд
ф ан
сель ских</w>
си ла</w>
воз ле</w>
кп рф</w>
тран зи
по грани
ми на</w>
д ного</w>
спи ске</w>
следу ющей</w>
убе ди
направлен ы</w>
сы на</w>
сторо нами</w>
путе ше
из мер
поз днее</w>
ж дет</w>
н ки</w>
девя ть</w>
систе мой</w>
резолю цию</w>
торго вых</w>
извести ям</w>
ви н</w>
дево чек</w>
ин фек
отды ха</w>
ч ность</w>
студен тов</w>
раз работать</w>
ква дра
стре ль
испол нения</w>
9 1</w>
э ли
мо ря</w>
вт б</w>
подоз ре
оба ма</w>
насе ление</w>
по й
возвра ща
йор ке</w>
се г
мигра ции</w>
второ е</w>
ля ми</w>
кар ты</w>
лу ка
д вой
согласи я</w>
то рами</w>
с ъ
гу ю</w>
ле та
н по</w>
л ениями</w>
игра ли</w>
мер у</w>
пор т
про возгла
дол га</w>
манда та</w>
рез ко</w>
от вер
выпу ска
en c
к ндр</w>
бори с</w>
фотографи и</w>
об щую</w>
проси ть</w>
показа ли</w>
ли цами</w>
госпита лизи
президен ту</w>
спра ши
ме тра</w>
боеви ков</w>
вита лий</w>
ван ного</w>
меж правитель
ж де
предполага ет</w>
д ные</w>
вя за
по ла</w>
струк тур
не при
предела ми</w>
белару сь</w>
зо н</w>
ве ц</w>
рь я</w>
ров ку</w>
аэропор ту</w>
2 3
проф ессо
си г
наличи и</w>
пар ка</w>
утвержда ют</w>
превы шает</w>
тин ской</w>
принима ют</w>
ви ру
случа и</w>
красно дар
д ж</w>
цер кви</w>
город ских</w>
уточ нил</w>
ку ри
ло жен</w>
привле чь</w>
перево д</w>
оказа ть</w>
све т</w>
прибли зи
ва ющий</w>
констан тин</w>
эффектив но</w>
ша й
2 4
ре за
про даже</w>
прилож ении</w>
болга рии</w>
пе даго
международ ная</w>
тури сти
осно вания</w>
ю го</w>
от кло
право м</w>
фина л</w>
с ный</w>
влен а</w>
нач нется</w>
д ка</w>
учре жден
за каз
п к</w>
диа лог</w>
ли зация</w>
пенси оне
участи и</w>
контрак та</w>
пред ставлен</w>
ре зиден
води ть</w>
спарта ка</w>
начи ная</w>
га ет</w>
повы шен
целе сообраз
показыва ет</w>
кон фи
я н</w>
то ва</w>
вой ска</w>
ка жды
ру мы
област ной</w>
опы том</w>
инициа тив</w>
ти ту
смар т
находя щихся</w>
темпера тура</w>
тель ница</w>
л ав
на пи
ен ной</w>
сообща ют</w>
заклю ченных</w>
в скоре</w>
та цию</w>
. php</w>
со ору
дальней шем</w>
провин ции</w>
россий ском</w>
пробле мам</w>
соче та
нуж ны</w>
предвари тельным</w>
н ра
государствен ные</w>
украин ской</w>
хо й</w>
социаль ные</w>
щен а</w>
то рии</w>
ме л
под нима
ре ж
выро с</w>
право защит
представи л</w>
использо вании</w>
вен г
сооб ра
большин ства</w>
выс шем</w>
ба ров
ор дини
ти зации</w>
да ния</w>
партне рами</w>
ро ли
поста вок</w>
хва тает</w>
воз му
я ви
при ста
чи ли</w>
тя ж
ща яся</w>
о гонь</w>
струк тура</w>
учиты вать</w>
до сро
прав у</w>
разработ ку</w>
роди тели</w>
име л</w>
ссыла ясь</w>
ре в</w>
тер ы</w>
сооб щений</w>
спосо б</w>
спу т
мене дже
пла н
рассмотр ению</w>
сло вами</w>
республи кан
о де
и е
использу ется</w>
под ряд
го л</w>
приня тые</w>
у тра</w>
а ук
и н</w>
оста лось</w>
во шли</w>
но сят</w>
полу чает</w>
предвари тельной</w>
б ла
ста дии</w>
ира на</w>
имуще ство</w>
инвести ции</w>
б ос
би ть</w>
оста нется</w>
части чно</w>
в ке</w>
ши на</w>
чита йте</w>
ве дут</w>
соответству ющими</w>
не от
обеспоко енность</w>
лик види
по са
обсу ждение</w>
кад ров</w>
гла вой</w>
испол ня
во к
хо че
най ден
основ у</w>
ви ков</w>
о ставля
сказа ли</w>
нача лась</w>
рассмотр ении</w>
по ст
от ка
ти те</w>
попы тки</w>
информа ционных</w>
х ен
оконча ния</w>
п лей</w>
пра ши
юрис дик
глу б
появи лся</w>
таи лан
потреби телей</w>
зо н
украин ского</w>
све та</w>
предела х</w>
здоров ье</w>
в ку
м об
э коно
в ного</w>
москов ского</w>
науч ных</w>
рован ным</w>
расска зыва
ма ги
на столько</w>
пи ра
ду ш
счаст ли
архи тек
об зор
ни тельно</w>
спо собо
чинов ники</w>
эфи ре</w>
я ку
дру же
эк спорта</w>
ан тон</w>
з доро
зна ний</w>
появи тся</w>
ва сто
спро са</w>
международ ному</w>
ни т</w>
стра нице</w>
от каз</w>
раст ет</w>
пози ция</w>
характери сти
у тра
в ведения</w>
увер ены</w>
ко вым</w>
ле чение</w>
сконча лся</w>
структу ру</w>
напад ения</w>
сен су
мир ного</w>
ль ского</w>
стро й</w>
иде и</w>
у де
состоя лась</w>
е ц</w>
не су
зна я</w>
юни се
ак тов</w>
пассажи р
сбо р</w>
сох ранения</w>
обу чение</w>
претен зи
з ак
подтвер дили</w>
ска чать</w>
това ры</w>
эпи зо
юнисе ф</w>
зри телей</w>
ве личи
вопро сом</w>
та тар
бар ди
цер ков
руководя щих</w>
беспо ряд
право вых</w>
т ров
зи ть</w>
ству ющие</w>
ар мей
совер ша
по смотреть</w>
подтвержда ет</w>
област ного</w>
фили а
верну лся</w>
пе ше
сть десят</w>
лич ных</w>
комисса ра</w>
сла ва</w>
в ходя
разно образи
настояще й</w>
призна ет</w>
в зы
обеспе чении</w>
запи си</w>
закон ы</w>
важ ды</w>
сани тар
за м</w>
му ль
вро де</w>
о сторо
наз вать</w>
свидетель ствует</w>
пожа ра</w>
у ступи
рабо той</w>
и ной</w>
пользо ваться</w>
пыта ются</w>
участ ков</w>
удовлет вори
ме да
сфер у</w>
террори змом</w>
кон тинен
й ста</w>
работо да
особен ности</w>
ника кой</w>
постепен но</w>
ги н</w>
ядер ной</w>
парла мента
до ходы</w>
ра совой</w>
кра е</w>
потер и</w>
оте ц</w>
поддержа ть</w>
се риа
уча сток</w>
аре ст</w>
соответству ющей</w>
волго гра
ресур сами</w>
вы воды</w>
мир ных</w>
м ные</w>
се л</w>
неде ль</w>
предусмотрен о</w>
стре е</w>
в ни
тив ном</w>
по правок</w>
на вы
ю би
ин доне
пе р</w>
про явля
до пу
оста льные</w>
в ной</w>
са да</w>
общи н</w>
жи вет</w>
рас стоя
обли га
плю с</w>
да н</w>
вене суэ
кон сенсу
об ру
террористи ческой</w>
крас нояр
ност ям</w>
эле ментов</w>
показа л</w>
культур ных</w>
про пу
доклад чик</w>
дости жение</w>
выясни лось</w>
сты е</w>
веду щих</w>
чу к</w>
ри т</w>
по ведения</w>
я нуко
перево зок</w>
я вление</w>
бое при
ль ский</w>
л ли</w>
же ле
высо кий</w>
от ходов</w>
рас т</w>
ак три
ген на
ро ванием</w>
каза лось</w>
парла мент</w>
во сть</w>
собеседни к</w>
иска ть</w>
воору жений</w>
ко лумби
ла я</w>
н к</w>
опас ных</w>
ме сторо
хоте лось</w>
медицин ского</w>
двадца ть</w>
живу т</w>
мо к</w>
тель ствах</w>
у жа
правитель стве</w>
ру ках</w>
ступ ление</w>
у важ
тур ция</w>
мо я</w>
харак тер
ли л</w>
влен ных</w>
европей ский</w>
гибе ли</w>
наблюда телей</w>
до жд
празд но
ко рей
доро ге</w>
ан на</w>
тре во
реши ла</w>
упра влении</w>
оста лся</w>
ту рой</w>
у дар
организа циям</w>
двухгоди чный</w>
о пять</w>
е вич</w>
компа нию</w>
отказа лись</w>
кон го</w>
конкурен ции</w>
ша ги</w>
евг ения</w>
г ры
сче ту</w>
да вать</w>
се реб
исла м
круп ные</w>
скоро сть</w>
чита ть</w>
вл ениями</w>
демокра тической</w>
те ма</w>
не прия
услови и</w>
смы сле</w>
ассамбле ей</w>
неожи дан
ле ген
ни те</w>
комите том</w>
совер шении</w>
жиль е</w>
го дам</w>
теа тра
юн кта
мето ды</w>
ш ка
юнкта д</w>
мор ского</w>
бы вает</w>
моб или</w>
к хл</w>
ст ся</w>
авто ра</w>
до ли</w>
ча ются</w>
кан чи
созда вать</w>
убий стве</w>
остров е</w>
ро ман</w>
сло ва
кандида та</w>
емы ми</w>
сте н</w>
то п</w>
по рации</w>
жене ве</w>
официаль ной</w>
смер ть</w>
у воль
показа ть</w>
ки ева</w>
графи и</w>
ви ну</w>
ки ев
треть ем</w>
вза им
писа ние</w>
треть его</w>
за тро
ко во</w>
у стро
сбор ную</w>
ро вок</w>
взры ва</w>
лич ные</w>
чи ком</w>
ра си
по ставить</w>
политиче ским</w>
пад ения</w>
прове дет</w>
ков ского</w>
с мяг
не достаточ
амери ке</w>
энер ги
над зор
ж ки</w>
о во
бо ры</w>
судеб ной</w>
полу ченных</w>
да ни
х ри
де ть</w>
т кой</w>
кров и</w>
выгля дит</w>
благо твори
пользо вания</w>
стро го</w>
лондо не</w>
пыта ется</w>
узна ть</w>
ка кая</w>
ри ей</w>
при лага
перевоз ки</w>
меньшин ств</w>
ва ль
участ нику</w>
потреб ления</w>
пере пи
ну тся</w>
времен ного</w>
мини стром</w>
призна ть</w>
ь те</w>
опла чи
собствен ной</w>
ти ями</w>
ф она</w>
защи та</w>
ы х</w>
зача стую</w>
ст рен
озабочен ность</w>
ро к
деся тки</w>
ма шину</w>
спортсмен ов</w>
об мен
си би
заме дли
ключе вых</w>
об се</w>
назна чен</w>
террори зма</w>
эконо м
10 .
бри га
сокра тить</w>
ю сти
кита е</w>
веде тся</w>
вши ми</w>
член а</w>
япо ния</w>
секто р</w>
фор ма</w>
бое вых</w>
предложи ли</w>
режиссе р</w>
ме мо
простран ства</w>
чис лу</w>
л лю
подроб нее</w>
по един
продолж ение</w>
запад ной</w>
мен ту</w>
зву ча
стра и
боль нице</w>
пред ше
продолжа ется</w>
прео доле
дет ских</w>
це лый</w>
пообеща л</w>
строитель ству</w>
но ри
фа с</w>
в ступления</w>
право слав
внеш ней</w>
гри го
луч шим</w>
ва го
р обер
квали фикации</w>
содержи т</w>
мат чах</w>
ло го
у ти
по стави
буква льно</w>
прове ла</w>
ст ской</w>
суще ствуют</w>
миро твор
простран ство</w>
обще стве</w>
сер ва
о пол
s .
штра ф</w>
зо й</w>
те мы</w>
тен ни
сле жи
сред ней</w>
пер вен
моло до
виде ть</w>
измен ение</w>
пар к</w>
е вре
анг лии</w>
австра лии</w>
пар у</w>
на ше</w>
из бран
вше му</w>
необ ы
вя з
испа ния</w>
поко ления</w>
не лега
ру ющие</w>
види м</w>
но п
д важды</w>
поли цию</w>
й ский</w>
фестива ль</w>
ходи л</w>
предлага ют</w>
ме ча
ви ки</w>
фици ен
э по
ка дро
й ного</w>
о дина
матер и</w>
эф фициен
вай п</w>
резолю ций</w>
поощ рения</w>
кну ть</w>
воз действие</w>
демокра тии</w>
выпу ск
д жа</w>
фир мы</w>
опера тивно</w>
са мая</w>
семь я</w>
ри ск</w>
мо раль
устра и
е мую</w>
процес сов</w>
благо дар
се васто
р с</w>
конкур с</w>
лу ган
у крепи
источ ника</w>
ва ющей</w>
ком муни
упра влением</w>
о скор
ан то
сле дить</w>
экономи ка</w>
сет ях</w>
иде я</w>
до вери
дости чь</w>
до пин
при ва
ру емых</w>
хо тим</w>
установлен о</w>
возмож ные</w>
провод ятся</w>
мину те</w>
рабо ти
а ра
до ль
пыта лись</w>
ны не</w>
вра чи</w>
мест ной</w>
дже й
участ никам</w>
ско ро</w>
опла ты</w>
ке ль</w>
же к</w>
предприя тие</w>
авто ров</w>
ри н</w>
действу ющих</w>
в шую</w>
ва ю</w>
дени с</w>
д вор
вяче слав</w>
регу ля
поме щений</w>
из ба
бе л
распростра ня
практи ка</w>
па ль
выпол нить</w>
вра та
ки ров
ж к
получа т</w>
попа сть</w>
ло ка
совеща ний</w>
за служи
во куп
юсти ции</w>
шко лу</w>
креди тов</w>
ко лон
де те</w>
ха баров
провер ка</w>
суд ья</w>
подразде лений</w>
о пу
те ло</w>
д ре
состоя лся</w>
прода жу</w>
по ни
ня ми</w>
2 6
бро н
глав у</w>
име ются</w>
г ви
комите ту</w>
персо нал</w>
пред поч
разме щения</w>
охра не</w>
те ме</w>
чемпи он
воен но</w>
ра н</w>
по ставля
мето ди
тр л
регуляр ного</w>
ча ми</w>
теа тр</w>
ло м
важ ную</w>
четвер той</w>
неправитель ственных</w>
бы стрее</w>
рефор м</w>
раз ы
т ли
сня ть</w>
шта ба</w>
с ны</w>
принци п</w>
удо воль
сотрудни чать</w>
гене ра
вос ьми</w>
субъек тов</w>
о держа
чи е</w>
уда стся</w>
за ла</w>
жи л</w>
ду мы</w>
ка фе</w>
пи аль
грози т</w>
судь и</w>
взы ска
б рь
ст ные</w>
озна коми
об щая</w>
игро ки</w>
пу сть</w>
переда ть</w>
аи ф</w>
ща ют</w>
цион ном</w>
ми ссий</w>
ка и
созда на</w>
вы зыва
д нр</w>
прокуро ра</w>
рь е</w>
табли це</w>
серьез ных</w>
ч п</w>
вы вод</w>
вспо м
не большой</w>
национа ли
ка кую</w>
ку льта
пу ш
времен а</w>
не достаточно</w>
ве ден</w>
ч м</w>
б лю
позволя ют</w>
акти визи
гла за</w>
ж д</w>
тель ному</w>
памя т
заме тил</w>
пад ение</w>
реали зу
и г</w>
воро т</w>
стви й</w>
независи мо</w>
американ ские</w>
плани руют</w>
бер г</w>
ку х
цве та</w>
за канчи
футбо ла</w>
любо е</w>
уг ле
прово ка
евро союза</w>
теле кана
группи ровки</w>
установ ки</w>
еха ли</w>
ь ер
перспек тивы</w>
йор к</w>
201 9</w>
департа мент</w>
рабочи е</w>
рова я</w>
американ ский</w>
принци пе</w>
ка ком</w>
рус ского</w>
ров ке</w>
предпринима телей</w>
отде ление</w>
лан дия</w>
по ва</w>
р ного</w>
моло дой</w>
голов у</w>
раз ум
мигра н
ж дут</w>
пере числен
ло ги</w>
пе сков</w>
участ ка</w>
вы шла</w>
провод ят</w>
очевид но</w>
соверши л</w>
эк спо
мор ской</w>
секретариа т</w>
действу ют</w>
исследо вание</w>
е к</w>
све те</w>
в друг</w>
упра влению</w>
визи та</w>
су ток</w>
кра со
не ра</w>
за пас
поя сня
гене рал</w>
коман дой</w>
кон гре
мест у</w>
ду хов
пла сти
попа ли</w>
ст ка</w>
муниципа льных</w>
му со
дру гую</w>
приве дет</w>
ги на
под ви
много е</w>
эффектив ной</w>
хоро ший</w>
писа ть</w>
определен ные</w>
ман че
вы воду</w>
пере смо
се й
ч ному</w>
маши на</w>
зда ний</w>
си ти</w>
секретариа та</w>
праздни к</w>
с прос</w>
па кет</w>
с кла
послед ней</w>
ля ют</w>
о м
вы ставки</w>
локо мо
ру би
ядер ных</w>
професси она
пол ный</w>
устано вления</w>
указа но</w>
сотрудни кам</w>
рован ная</w>
резолю цией</w>
обстоя тельства</w>
националь ный</w>
работа ющих</w>
мер но</w>
фон дов</w>
проис ходя
ги й</w>
от клю
уров нем</w>
соответству ющего</w>
тиче ским</w>
юриди ческих</w>
ко рея</w>
ре спонден
пре д</w>
то в
и ми
да ге
масшта бов</w>
нынеш нем</w>
за прос</w>
институ т</w>
сси он
ла т
полови не</w>
авиа компании</w>
музе я</w>
включа ть</w>
акаде ми
современ ных</w>
поме щения</w>
add .1</w>
объясни л</w>
несовершенно летних</w>
грани цу</w>
брю ссе
борь ба</w>
за ранее</w>
н ном</w>
све то
без работи
спе кти
совет у</w>
страхо вания</w>
футбо л</w>
кра е
ли ли</w>
полож ениями</w>
че б
пробле мой</w>
ди рек
навер ное</w>
щу юся</w>
над зор</w>
задержа ны</w>
дол г</w>
эк стрен
кварти ру</w>
проз ра
заболе ваний</w>
само летов</w>
ал тай
на оборот</w>
фу н
дости жению</w>
с верх
ос во
прекра тить</w>
зав тра</w>
конферен ция</w>
по просил</w>
церемо нии</w>
нача льно</w>
з вание</w>
государствен ный</w>
по й</w>
воспользо ваться</w>
наимен ее</w>
еги пе
болез ни</w>
й ной</w>
и ных</w>
экономи ческим</w>
вед ений</w>
принад ле
мат чи</w>
выну ждены</w>
пла нах</w>
пар ен
партнер ства</w>
материа ле</w>
насе ленных</w>
ф к</w>
указа нных</w>
пере смотрен
луч ший</w>
ви ло</w>
до чь</w>
долла ра</w>
при держи
гражда нам</w>
ство вала</w>
изу чения</w>
выступа ть</w>
ада п
ти ло</w>
иль я</w>
м ный</w>
ен ным</w>
служи ть</w>
собствен ных</w>
ста тей</w>
рубе жом</w>
ри ска</w>
пол ков
шве ции</w>
ха м
ва й</w>
и поте
раке ты</w>
кана ды</w>
име ющихся</w>
стра ной</w>
профила кти
со проти
от ста
занима ются</w>
предотвра щения</w>
добы чи</w>
ссо м</w>
кар то
поль ши</w>
про информи
тер пи
гру зов</w>
h ref</w>
ин ди
шен а</w>
при мут</w>
институ циональ
заби л</w>
ло е</w>
три дца
доба вить</w>
зая вляет</w>
испыта ний</w>
в ведение</w>
организо вать</w>
распоря жении</w>
на значи
тель ских</w>
и о
граждан ства</w>
возвра щения</w>
го сла
фору м</w>
памя ть</w>
вы стре
моск ви
ря ет</w>
жен ные</w>
моби лизации</w>
ле ва</w>
х ристи
оказа ться</w>
труд ности</w>
приве ло</w>
привле чения</w>
пусти л</w>
u ters</w>
участ ником</w>
миро вых</w>
т. д.</w>
прекра щения</w>
обстоя тельств</w>
ог не
ст ной</w>
игра ют</w>
р ении</w>
буду щих</w>
со на</w>
потребу ется</w>
анд ре
а пелля
тив ными</w>
по прежнему</w>
ги м
ря ды</w>
пере чис
тури зма</w>
у строи
жа н
использо ваться</w>
пребы вания</w>
эле менты</w>
бур г</w>
шан сы</w>
да вления</w>
определен ных</w>
ирку тской</w>
интере су
ба зу</w>
возмож ным</w>
прогно з</w>
вод ных</w>
д ве
об щие</w>
швейца рии</w>
зо на</w>
результа том</w>
а ле
созда н</w>
помога ет</w>
прош ло</w>
пропаган ди
шко лах</w>
а эс</w>
мень шей</w>
оф ф</w>
лат вии</w>
кари б
буд то</w>
ност и
рос бал
зая влений</w>
жи е</w>
рейтин г</w>
мор ских</w>
полови ны</w>
взно сы</w>
использу ются</w>
с ъем
по пол
мили ции</w>
различ ными</w>
приня тии</w>
ма лых</w>
лабо рато
от чет</w>
принци пиаль
гла в</w>
снизи ть</w>
финлян дии</w>
постано вление</w>
леони д</w>
иде аль
утвер жден
тен си
ж ная</w>
жи тель</w>
жк х</w>
д лов
хи и</w>
зе млю</w>
пыта лся</w>
ден а</w>
фрак ции</w>
прину ди
подгото вить</w>
про бе
та н</w>
се р</w>
рен а</w>
петербур г
зда нии</w>
жд ением</w>
на в
цион ными</w>
контро лю</w>
обяза ны</w>
на став
раз решение</w>
орга нам</w>
стоя т</w>
ль я</w>
высо кие</w>
женщи нами</w>
точ ка</w>
вашинг тон</w>
мэ р</w>
взя л</w>
обо й
ры бо
авто мобили</w>
ни ге
массо вых</w>
ть ев</w>
луч шие</w>
оста льных</w>
о ра
по ток</w>
г ин
нача лся</w>
сло м</w>
ир ландии</w>
защит ника</w>
тю ре
шан с</w>
теле канала</w>
удосто вер
о ли
женщи нам</w>
работа ла</w>
лиц ом</w>
вырос ла</w>
сосе д
успе х</w>
бо л</w>
следова тели</w>
сдела но</w>
жало бы</w>
соб я
соблюд ение</w>
в ных</w>
ма лы
ске т
успе ха</w>
трл н</w>
докумен тации</w>
ограни чений</w>
мо на
ан жи</w>
го ль
по иско
с ъез
напра вл
порта л</w>
ру к</w>
суд на</w>
ма ка
е два</w>
го ст
наблюд ения</w>
с нения</w>
эваку и
води теля</w>
ба зи
па л</w>
штра ф
по свя
иско рен
грани це</w>
вра чей</w>
ви ктора</w>
муниципа ли
ра чи
объясня ет</w>
рам ки</w>
комби на
теле канал</w>
иден ти
находи ться</w>
прось бе</w>
реш ено</w>
го сти</w>
ж ным</w>
площад ью</w>
су ды</w>
оцени ть</w>
бе ру
пред выбор
по дар
устрой ств</w>
ви в</w>
использо ванию</w>
полно цен
об жало
т. е.</w>
мо то
к ы
ле тие</w>
обви нение</w>
у жесто
поступи ло</w>
мину ты</w>
да ты</w>
ув кб</w>
дене жных</w>
мв ф</w>
железно дорож
5 0
опа са
с ар
фигу ран
взя ли</w>
ки сло
кана да</w>
разде ле</w>
з ао</w>
ю г</w>
и ран
пара лле
егип та</w>
го лу
жерт вами</w>
па тру
причи нам</w>
террори стов</w>
выступ ление</w>
ри ла</w>
нынеш ней</w>
тр я
к э
ска ми</w>
ди те</w>
инициа тиве</w>
скоро сти</w>
oin ed</w>
виде л</w>
вы игры
функ циональ
ье т
дж он</w>
нача лись</w>
дет ского</w>
оказыва ет</w>
в с</w>
со рок</w>
пол ное</w>
у с</w>
жа н</w>
ста вок</w>
стано вятся</w>
по ш
сообща л</w>
за п
многочислен ные</w>
фе до
са ли
по строить</w>
бу к
влен ные</w>
и к
никола я</w>
ти ке</w>
предложи ть</w>
ведом ство</w>
иде ю</w>
кон центра
ц кого</w>
ду ющий</w>
ча м</w>
по благода
лен ной</w>
ти ться</w>
и щ
роз ни
ка ет</w>
до вер
сво й
друз ей</w>
пробле мами</w>
жи ли</w>
использу ют</w>
поки нуть</w>
прав ки</w>
я тно</w>
пере хода</w>
ф ра
россия не</w>
гаран тии</w>
слова ки
зая влением</w>
в последствии</w>
ис к
актив ы</w>
ти ны</w>
ша яся</w>
ен ь
ви ны</w>
ж ном</w>
поста нов
са д</w>
рати фици
во де</w>
гендер ного</w>
указыва ет</w>
осен ью</w>
от стра
циф ро
к уве
начина ет</w>
сыгра ть</w>
дет ской</w>
зе р</w>
упа л</w>
каждо му</w>
экономи ческий</w>
писа ли</w>
тиче ское</w>
сто л</w>
участ ке</w>
адре су</w>
миха й
в ред
раз вер
а .
вы несен
разработ ка</w>
распреде ления</w>
обла стей</w>
удовлетвор ением</w>
органи зу
внутрен ней</w>
затра т</w>
ле со
раз обра
й о
власт ям</w>
че ч
рус ский</w>
не хва
надеж ду</w>
ц ом</w>
ра но</w>
экспор т</w>
фло та</w>
карь еру</w>
свет лана</w>
прожи вания</w>
транс парен
жур на
фа бри
законо проекта</w>
побе да</w>
инциден та</w>
стратеги ческих</w>
ни цей</w>
оста ваться</w>
аук ци
ри сков</w>
нуж на</w>
се ла</w>
наз вали</w>
фо нов</w>
й е
на сило
хоче тся</w>
интеллек туаль
ва кан
н но</w>
точ ку</w>
националь ным</w>
тро й
спи ска</w>
глоба льной</w>
бан ке</w>
реконструк ции</w>
м ян
испол нении</w>
заку пок</w>
ребя та</w>
член ом</w>
во ин
п от
объек та</w>
хоте ла</w>
аспек ты</w>
заинтересован ных</w>
но выми</w>
эсто нии</w>
ген о
в ные</w>
вой на</w>
но ви
осно вы
от ца</w>
ш ос
лав ров</w>
ро д</w>
кон стати
до ход</w>
турни ре</w>
эксплуата цию</w>
за тя
работ ка</w>
со вокуп
дан ными</w>
прове рить</w>
учены х</w>
разви вать</w>
м бу
зарпла ты</w>
т ства</w>
ги дро
созда ет</w>
бы вшей</w>
договорен ности</w>
ведом стве</w>
санк циони
види т</w>
администра ция</w>
улуч шению</w>
свидетель ствуют</w>
состоя лось</w>
вше мся</w>
3 ,5</w>
му ж</w>
ня ка</w>
екатери на</w>
состави ли</w>
дума л</w>
ю лия</w>
про ходить</w>
разору жению</w>
следу ющее</w>
хи н</w>
ни же
те рии</w>
пол тора</w>
ис ходя</w>
лу ю</w>
стан ций</w>
ин тенси
вы нес
еди ниц</w>
вра ч</w>
лидер ы</w>
cn .
ко эффициен
ста ро
от зы
вой не</w>
много м</w>
нра вится</w>
чемпи он</w>
намер ена</w>
с ное</w>
се к</w>
н хл</w>
вто рая</w>
ве ла</w>
е ю</w>
разде л</w>
недо воль
называ ется</w>
б рас
собствен ные</w>
на силь
олимпий ских</w>
реали зацию</w>
са ма
инициа тиву</w>
че л
владе лец</w>
пи ще
клу бов</w>
пенси и</w>
1 10</w>
ли ю</w>
соответ ствие</w>
тех ника</w>
в шем</w>
широ ко</w>
перспек тиве</w>
пар ков
дж ор
полу чении</w>
сол н
пи сы
жен ный</w>
косми ческой</w>
вклю чения</w>
би леты</w>
т ному</w>
раз или</w>
по э
культур ного</w>
спе ци
де пози
роди лся</w>
й ских</w>
пе ти
наде ется</w>
р г</w>
обе их</w>
си пе
сер тифика
обе з
балан си
кры м
сол не
зем ле</w>
хи ру
совет ского</w>
бюдже те</w>
связа нной</w>
дан ное</w>
пер спекти
преступ ление</w>
обсу дить</w>
тель стве</w>
прово ци
техниче ские</w>
ва ясь</w>
применя ть</w>
верхов ный</w>
ва в</w>
крем ля</w>
выро сли</w>
н ь
карти ны</w>
ошиб ки</w>
воз награ
сопер ника</w>
га л
проек том</w>
у ка
г ности
л дп
у те
со мо
претен зии</w>
о пе
совмест ных</w>
заверши ть</w>
работ ке</w>
ме д</w>
мо ли
ру ем</w>
выпол нению</w>
буду чи</w>
х уже</w>
1 .</w>
манче стер</w>
держ ки</w>
игро к</w>
ложи л</w>
об работки</w>
в ступа
аре ста</w>
ма гни
ре с</w>
анали зи
те бе</w>
си бо</w>
же л
фай л</w>
понима ния</w>
филь мов</w>
ле бе
пу ль
да ст</w>
из ве
грани ц</w>
штра фо
ф о</w>
организо ванной</w>
игро ка</w>
маги стра
опера цию</w>
повест ку</w>
участво вали</w>
зо ну</w>
предусмотрен ных</w>
4 0
ар гу
пред ска
ли вии</w>
бро са
гри вен</w>
со ч
стар ший</w>
нд и</w>
руководи тели</w>
бы вших</w>
отде льные</w>
готов ность</w>
пора жение</w>
ирку т
ра ться</w>
ков ский</w>
рова лись</w>
ен ности</w>
люб ви</w>
ва емые</w>
объеди нения</w>
ю щаяся</w>
те ми</w>
зна ем</w>
ве сной</w>
крат ко
ди ю</w>
рен ы</w>
за вери
влия ния</w>
обо их</w>
эффек т</w>
гер це
числен ности</w>
инф ляции</w>
секрета рем</w>
вы брать</w>
един ственный</w>
и стре
зна ния</w>
тин ген
ст ров
специали ст</w>
ва ющего</w>
х ранения</w>
тр у</w>
показа ния</w>
ак ты</w>
споко и
ту ет</w>
север о</w>
законодатель ством</w>
иго ря</w>
значи тельной</w>
получа ется</w>
вклю чены</w>
восто ка</w>
встре ч</w>
метра х</w>
куз не
бе зна
след ственного</w>
от слежи
ба я</w>
начина ется</w>
голо са</w>
ро сте
герце го
хо ждение</w>
фи ло
цен три
функциони рования</w>
цен тры</w>
пожалу йста</w>
ру ан
шос се</w>
у шел</w>
интер нете</w>
у лы
обрати лись</w>
тради ции</w>
лич ного</w>
обра з</w>
кварти р</w>
в то</w>
а с
ру сали
в ченко</w>
к лин
не по
ак тер</w>
бедстви й</w>
от кро
э ри
произ веден
сче те</w>
ю рия</w>
об е</w>
п ления</w>
нача лось</w>
це ва</w>
требо вание</w>
до хода</w>
сохра ни
макси му
оз ву
установлен ы</w>
ю ме</w>
госду му</w>
у лья
ремон та</w>
и на</w>
на много</w>
каза ни</w>
оппози ционе
лен ного</w>
ше ль
вла д
ше стьдесят</w>
ле ст
ц ы
строитель стве</w>
выигра л</w>
корре к
производ стве</w>
выпол нении</w>
квали фика
концеп ции</w>
ну жен</w>
акаде мии</w>
осуществля ться</w>
выпла чи
част ей</w>
лдп р</w>
ин струк
сы ла
боепри па
ти п</w>
1 30</w>
филь ме</w>
в ес
маши не</w>
п ис
локомо тив</w>
на це
заболе вания</w>
еди ная</w>
предоставля ть</w>
спокой но</w>
мо и</w>
9 00</w>
челове ком</w>
а ссо
сси ях</w>
египе т</w>
процес суаль
ру ку</w>
счита ем</w>
води телей</w>
коммер ческих</w>
предме т</w>
современ ной</w>
к ем</w>
валю ты</w>
кали нин
за ли
стать ю</w>
из насило
це ден
обла дает</w>
гос под
тор говой</w>
кон тинген
сцен е</w>
ок купа
с ла</w>
дру гая</w>
тель ской</w>
вл е</w>
опас ность</w>
соревно ваний</w>
улуч шение</w>
ш кин</w>
рын ках</w>
контро лем</w>
а х</w>
смотри т</w>
огово р
интере сно</w>
сувер ени
при сво
по бы
веще ства</w>
все сторон
мо его</w>
переда че</w>
язы ках</w>
ла тинской</w>
ра циональ
солда т</w>
природ ных</w>
ко вого</w>
ак ция</w>
несу т</w>
вы ходит</w>
ос ведом
вело сипе
со мали</w>
в шаяся</w>
коло ни
ку б
до вать</w>
постано вил</w>
турни р</w>
доказа тельств</w>
при част
сами х</w>
воен ный</w>
статисти ки</w>
боль шее</w>
не которым</w>
пла ка
оста н
шен ные</w>
вели кой</w>
претен ден
результа тах</w>
и ллю
конвен ция</w>
пари же</w>
территори ях</w>
ро сту</w>
необходи мым</w>
з ме</w>
ал жи
с кро
деву шка</w>
ше в</w>
информа ционной</w>
б р</w>
рован ными</w>
те ма
васили й</w>
стои мостью</w>
в ный</w>
10 00</w>
федераль ных</w>
с на
извест ных</w>
пробле ме</w>
площа дки</w>
предыду щих</w>
массо вого</w>
во дой</w>
мо ду
н ениями</w>
лы ми</w>
возду х</w>
оказыва ется</w>
хоро шие</w>
экономи ку</w>
аль ян
ие русали
важ ные</w>
под ъ
фигу ри
приве ден
о ставить</w>
включа ют</w>
тор у</w>
пресе чения</w>
медведе ва</w>
сто р
выпол нен
колле г</w>
земле тряс
устойчи вому</w>
ц вет
у йти</w>
за действо
всемир ного</w>
косми ческого</w>
безу словно</w>
журнали сты</w>
региональ ными</w>
тер мина
ну ла</w>
модерни зации</w>
диа гности
д зе</w>
эффектив ных</w>
пред писа
ситуа цией</w>
т т</w>
бом барди
жало б</w>
нен ко</w>
аэропор т</w>
ци ви
продук цию</w>
п п</w>
ков у</w>
рын ки</w>
са рато
ре ки</w>
да на</w>
развер ты
запа сов</w>
пере ч
ста ни
не восто
за строй
со вест
ю к</w>
д жи</w>
площад ке</w>
при ви
ген директор</w>
т уни
за менить</w>
заня л</w>
темпера туры</w>
пи сь</w>
во вле
молоды е</w>
про ми
ю но
пар ке</w>
ново му</w>
об народо
счита ли</w>
иск рен
ни цах</w>
рф с</w>
согласи лся</w>
рова ло</w>
ста вро
предпо чита
ду ю</w>
пора жения</w>
побе реж
не м
она м</w>
свер длов
по сту</w>
сов мести
но вич</w>
похо же</w>
у реа
ля ли</w>
последни м</w>
es ted</w>
гуманитар ного</w>
согласи е</w>
г вар
мен тами</w>
ч ка
предложен о</w>
кандида т</w>
сла бы
кон стру
фе й
заклю ча
ри ски</w>
расши рить</w>
ня т</w>
от рази
иг нори
ди стан
кило грам
ал та
высо ким</w>
совмест ной</w>
деву шки</w>
вши мся</w>
сом не
пере кры
смо гла</w>
рассматри вает</w>
высо ких</w>
очеред и</w>
зна к</w>
по ведение</w>
а бо
шта та</w>
выпла т</w>
т ках</w>
з о</w>
ра сти</w>
примен ении</w>
преследо вания</w>
к ен
телефон у</w>
фан та
пак та</w>
оле га</w>
основ ы</w>
с ном</w>
к нр</w>
вше е</w>
запи сь</w>
сто е</w>
сове те</w>
10 5</w>
инстру ментов</w>
нач нет</w>
по хоро
напра влений</w>
лука шенко</w>
щен ные</w>
ни сти
друго му</w>
шен о</w>
1, 2</w>
пере ход</w>
ви лся</w>
теку щем</w>
ре ц</w>
фак ты</w>
револю ции</w>
манда т</w>
в пло
ги ган
феде рация</w>
на дея
при шла</w>
пози ций</w>
договори лись</w>
ну лся</w>
времен ной</w>
направи ть</w>
предупре ждению</w>
ц р
энер го</w>
зи на</w>
офор м
ж ени
ше стой</w>
личе ство</w>
опера ция</w>
игра х</w>
о пере
ю госла
муз ей</w>
пись ме</w>
сы но
ю р
тяже ло</w>
д нях</w>
треть е</w>
ван ная</w>
зада чу</w>
на ци
действи ях</w>
вариан ты</w>
дж о
глоба льного</w>
мер кель</w>
с мени
утвер ждение</w>
от куда</w>
франц у
порт фе
торго в</w>
ат ло
сро ком</w>
столкнов ения</w>
вре мен</w>
по жи
зло умышлен
вы вать</w>
не мало</w>
ст я
патри о
ж ениями</w>
вну три
физи ческих</w>
мероприя тие</w>
ще му</w>
виде ли</w>
ер е</w>
основ ного</w>
задержа ния</w>
га й
гаран тий</w>
наруш ении</w>
тюрь мы</w>
выска зы
оста ться</w>
ар сена
диску ссии</w>
сте ре
капита л</w>
лицен зии</w>
получи лось</w>
пол года</w>
бан ком</w>
объя вили</w>
рын ков</w>
у хода</w>
пи н</w>
де ль</w>
владель цев</w>
воз раст</w>
связа на</w>
афгани стане</w>
ма ма</w>
нача лу</w>
э ква
вв с</w>
сле д</w>
серд це</w>
земе ль</w>
напря мую</w>
ра цию</w>
рок ко</w>
пере мен
заме тно</w>
лич ной</w>
район ы</w>
э д
мос гор
бу х
случай но</w>
ц о</w>
ну ться</w>
разбира тельства</w>
из де
ц у
бу ты
от каза</w>
призна лся</w>
африкан ских</w>
трагеди и</w>
сообщи ло</w>
пе ви
консульта тивный</w>
пу т
президен тских</w>
способ ствует</w>
на жды</w>
нало га</w>
социаль ным</w>
осла б
ш ке</w>
колле ги</w>
футболи стов</w>
не медленно</w>
ин дия</w>
норве гии</w>
прокуро р</w>
види мо</w>
донец кой</w>
откры тие</w>
ва шей</w>
г не
сокра щению</w>
прод ю
случи лось</w>
пол ную</w>
сче тов</w>
р п
чи ться</w>
труд я
аппара та</w>
гражда нина</w>
серви с</w>
горо ду</w>
откры того</w>
дж он
улуч шить</w>
вы разили</w>
фун да
упра влен
арен ду</w>
претензи й</w>
ч ую</w>
образо ванию</w>
пер ене
воз рос
наруш ениях</w>
эваку а
пре цеден
контрак тов</w>
ком пенси
ви р
федераль ной</w>
взры в</w>
материа ла</w>
р жд</w>
тимо шенко</w>
лиде ром</w>
предполага ется</w>
деся тков</w>
отве чать</w>
голосо вание</w>
рассматри вается</w>
предложи ла</w>
нен а
любо вь</w>
фа ми
устано вили</w>
кор порации</w>
ру г
мен ко</w>
собира ются</w>
ко реи</w>
поез д
ля ется</w>
особо го</w>
а ни
у мер</w>
те ле</w>
важ ный</w>
взрос лых</w>
приобре сти</w>
вы жи
директо ром</w>
рус ской</w>
призна ли</w>
восстано вление</w>
пожа р</w>
соблюда ть</w>
откры л</w>
содержа тся</w>
на ции</w>
опти ма
бал ла</w>
влен ной</w>
годо вщи
то вой</w>
глав ная</w>
сти ческой</w>
отве та</w>
институ тов</w>
ми те</w>
ме сто
спи р
принци па</w>
6 0
форма те</w>
пода чи</w>
ба м</w>
кол лега
ба скет
те ром</w>
от кров
лле тен
юж ная</w>
ти ям</w>
кто ров</w>
барре ль</w>
прода ть</w>
инциден т</w>
за ставля
доро гу</w>
де лом</w>
ба бу
значи тельные</w>
при ем</w>
перегово рах</w>
по йти</w>
ф ру
ка над
ско рой</w>
высо ко</w>
незакон ного</w>
ма лай
жа ться</w>
ти ка
широ кого</w>
англий ски</w>
степен ь</w>
вы те
от мени
стра хов
се ле</w>
реаги рования</w>
экономи кой</w>
теля х</w>
учи ться</w>
причи на</w>
украин ские</w>
проек ти
материа л</w>
на бира
ня ют</w>
авто матиче
ото бра
на считы
дне вно</w>
последу ющих</w>
из ви
понима ть</w>
политиче ский</w>
автобу с</w>
в следствие</w>
выход ные</w>
с право
винов ным</w>
проведен ы</w>
мероприя тиях</w>
тер е</w>
производ ству</w>
не замедли
ви дом</w>
з му</w>
соответству ющий</w>
гражда нин</w>
аспек тов</w>
глоба льных</w>
дву м</w>
че ва</w>
i .</w>
кон серва
ситуа ций</w>
электро нных</w>
лете л</w>
про дви
моде лей</w>
формиро вание</w>
1 60</w>
и ор
поли то
под зем
вс пы
авто ры</w>
чи й</w>
ш тей
олимпиа ды</w>
авиа ции</w>
эк стра
призна ния</w>
дни к</w>
покры тия</w>
а ка
цело ст
структу ре</w>
сказа но</w>
вид ят</w>
юне п</w>
понима ние</w>
в ском</w>
ча р
при гото
администра тивного</w>
реаль но</w>
по все
евро пу</w>
ш пи
европей ской</w>
лен ный</w>
призна н</w>
азербайджа на</w>
си гна
призна тельность</w>
по клон
тради ционно</w>
бро ни
подрост ков</w>
д п</w>
поль ша</w>
ви к</w>
пи сто
необходи мы</w>
дан ная</w>
ru .</w>
с х
тре ть</w>
народ ного</w>
окру ге</w>
ак цен
га л</w>
пе тра</w>
обраща ться</w>
призна ние</w>
процес сы</w>
контроли ровать</w>
рус ских</w>
бли же</w>
прекрас но</w>
ть е</w>
транспор т</w>
незакон но</w>
силь нее</w>
настояще м</w>
услу гам</w>
ини ции
пря мой</w>
практи ку
бере т</w>
ди ло</w>
креди т</w>
законодатель ству</w>
бо л
клу бе</w>
жи д
донба ссе</w>
дево чки</w>
ре ме
продолжи т</w>
приве ли</w>
зи ди
коммента рии</w>
рован ное</w>
за чем</w>
про би
транспор тной</w>
ди ться</w>
подозрева емых</w>
уголов ных</w>
внеш не
позволи ло</w>
за мени
во дом</w>
да ние</w>
высоко поставлен
ья н</w>
подписа ли</w>
представи тельства</w>
д рев
удовлетво рения</w>
ле ра</w>
не известно</w>
из дели
ори гина
вос ста
скоро стью</w>
д жер
современ ного</w>
ка лен
э ль
мэ рии</w>
вопро се</w>
стре бо
вз ор
напра вление</w>
зна л</w>
ро бо
золо то</w>
пере ди</w>
в ьет
иде ологи
соли дар
добро совест
электро энергии</w>
пе в
пациен тов</w>
м ский</w>
име ющие</w>
вариан тов</w>
к лет
справедли вости</w>
кали фор
но чи</w>
де мо
заседа ниях</w>
состави ть</w>
доро жной</w>
возника ет</w>
нала жи
к рова
о мо
теа тре</w>
пода л</w>
уста ва</w>
сред ство</w>
до про
ь ем</w>
из начально</w>
инициа ти
офи це
природ ы</w>
арм ения</w>
но у
челове ку</w>
ме тр</w>
начина ют</w>
пи ть</w>
мест ном</w>
ана ста
ор би
ак цию</w>
че ре
кру г
смыс л</w>
о пер
экипа жа</w>
фа культа
концер т</w>
опера тивной</w>
га и
не измен
о сад
катастро фы</w>
конкур се</w>
доказа тельства</w>
обо зна
конферен ций</w>
про м
постоян ного</w>
н ском</w>
предоставля ет</w>
по на
по ста</w>
физи ческой</w>
сбер банка</w>
ча сы</w>
предусматри вается</w>
н ка</w>
га ле
примен ением</w>
актив ности</w>
ч кой</w>
вероя тность</w>
год но</w>
рова лось</w>
не которое</w>
пострада л</w>
об я
цен ности</w>
за то</w>
нало г</w>
заработ ной</w>
ма рокко</w>
ру лем</w>
ев у</w>
визи он
гон ки</w>
мето до
фору ме</w>
швей цар
ставлен ы</w>
гра до
с в
би летов</w>
зна ете</w>
сты м</w>
лле р</w>
у ст
участ ки</w>
ма т</w>
тем пы</w>
перен ос
ве ж
обра тно</w>
указа л</w>
проведен а</w>
во лон
са мо</w>
угро зой</w>
зада чей</w>
за блоки
вашинг то
вой ну</w>
нов ский</w>
да ла</w>
кла сс</w>
до че
евро па</w>
a .
официаль ным</w>
за ба
бере гу</w>
ново стей</w>
с бы
президен ты</w>
кар т</w>
отме чено</w>
един ственным</w>
пиш ут</w>
то лко
приро до
коммента риев</w>
ву а
существо вания</w>
выпу ска</w>
жи телям</w>
груп пами</w>
способ ны</w>
под ру
ради о</w>
саудов ской</w>
п лы
управля ющих</w>
свиде телей</w>
освобо ждения</w>
бри фин
приеха л</w>
у ль
пон рави
. ру</w>
выступа я</w>
руководя щие</w>
ми ла</w>
юще еся</w>
вер х</w>
г с</w>
щи мся</w>
спор тивных</w>
оборо та</w>
корруп цией</w>
от реаги
чинов ник</w>
отде л</w>
выступа л</w>
ситуа циях</w>
а зиат
с ная</w>
осуществля ет</w>
вы ставка</w>
ф па</w>
пере до
198 9</w>
ви лись</w>
рабо чего</w>
протоко л</w>
р ный</w>
прави лам</w>
газе те</w>
позна коми
ч ники</w>
стандар ты</w>
пре ми
сро ков</w>
конкурен то
ля цию</w>
пользу ются</w>
да та</w>
по йдет</w>
си зо</w>
18 0</w>
коне чном</w>
раз верну
произо йдет</w>
насе лению</w>
плате жей</w>
во стребо
р э
су гу
объе мы</w>
ма ла
осно ваний</w>
бло ка</w>
т ская</w>
посе лке</w>
ци р
полови ну</w>
мест ный</w>
т ти</w>
объек т</w>
пя той</w>
процеду ра</w>
обсу дили</w>
многи м</w>
ст ры</w>
я ть</w>
зарубе жных</w>
лебе де
де ра</w>
звез ды</w>
внеш них</w>
государствен ным</w>
тор мо
собствен ного</w>
ок на</w>
режиссе ра</w>
ира ке</w>
д н
a .</w>
чел си</w>
университе т</w>
помощ ник</w>
партне ры</w>
ма стер</w>
бар нау
взя тки</w>
правоохра ни
ни в</w>
ка меры</w>
ю ге</w>
полага ют</w>
еже меся
воз гора
участи ю</w>
ва шего</w>
тру д</w>
оконча тельно</w>
г к</w>
сообщи ть</w>
юн фпа</w>
влади миром</w>
пу тей</w>
четыре х
доно ров</w>
оста навли
. 2</w>
посети телей</w>
инициа тива</w>
подмосков ье</w>
практи ку</w>
лег ко
принима я</w>
убежи ща</w>
на ряду</w>
юне ско</w>
свобод ной</w>
от менить</w>
созда ли</w>
наличи я</w>
времен ных</w>
би т
оке ана</w>
постано вляет</w>
о по
щи ками</w>
да ции</w>
поддержа ли</w>
програм мой</w>
подроб но</w>
ожида ет</w>
про гу
лич ный</w>
нен ави
жи х</w>
мак е
ма лого</w>
т то</w>
свобо д</w>
ва дим</w>
профессо р</w>
прео дол
он у</w>
распо ложен</w>
цен тро
10 ,
в води
араб ских</w>
ува жения</w>
со действии</w>
со во</w>
непре ры
ги х</w>
у держи
пору чил</w>
кон ди
материаль но</w>
фа куль
призы в</w>
чь и</w>
ме дали</w>
г г.</w>
стади оне</w>
сохран ение</w>
рейтин ге</w>
xx i</w>
бю ллетен
делега ций</w>
се те
фи фа</w>
19 80</w>
уголов ной</w>
ба за</w>
ма нов</w>
ле са</w>
e .
приня ло</w>
наркоти ками</w>
кур сы</w>
о теля</w>
рекор д</w>
пла ту</w>
наруш ением</w>
д ная</w>
э ми
на нес
на копи
обяза тельство</w>
з ю
при меча
допол нительно</w>
ти лся</w>
расши рению</w>
е мость</w>
компани ями</w>
самми та</w>
о чи
об уча
представи ла</w>
по каж
мест ным</w>
задержа нных</w>
процеду ру</w>
пра вами</w>
сти му
е во</w>
объ един
имен а</w>
г ы
газпро ма</w>
щи кам</w>
га т
сыгра л</w>
ку бок</w>
насили е</w>
ре пута
право защи
шко ла</w>
рова лся</w>
подчеркну ла</w>
уча щихся</w>
выступи ть</w>
полу ченные</w>
позволи ть</w>
созда ны</w>
россий скими</w>
полож ению</w>
визи т</w>
по сад
же ли</w>
че е</w>
б он
генна дий</w>
с держи
докла ду</w>
процес су</w>
отве тить</w>
с аль
ска х</w>
защи щать</w>
наро ду</w>
под ходя
но ги</w>
актив ное</w>
журнали ст</w>
королев ства</w>
работ ники</w>
иностран цев</w>
ней тра
за пла
сторон ников</w>
ре ва</w>
ближ нем</w>
на против</w>
из вле
жур нала</w>
поки нул</w>
транс грани
авст рии</w>
уничто жения</w>
н г</w>
кодек с</w>
фай ла</w>
магази нов</w>
т ко</w>
рекомендо вал</w>
ло вой</w>
спи кер</w>
принима ется</w>
за то
за лож
цик ла</w>
фи ни
уча ствуют</w>
ро са
понима ю</w>
насле дия</w>
го л
затра ты</w>
брази лия</w>
приве л</w>
к ци
выбо ра</w>
направлен о</w>
остано вить</w>
осу жден
интере со
плане ты</w>
постано вления</w>
на зем
и стин
рак ет</w>
та ния</w>
ду мы
цен тром</w>
с су</w>
тя брь
ч ок</w>
седь мой</w>
до ра</w>
гви не
у бор
ди зе
понима ют</w>
эпи де
е г
зна ли</w>
с п</w>
о а
секрета рю</w>
арен ды</w>
т ками</w>
объя вила</w>
кру гло
сфер а</w>
финансо вым</w>
извест ны</w>
числен ность</w>
доби ваться</w>
до пустить</w>
про меж
подо пе
политиче скую</w>
из ы
адвока та</w>
са мар
ата ки</w>
профессиональ ных</w>
внутрен ние</w>
рас стре
прекра щении</w>
проводи ться</w>
с лов
за рабаты
щи йся</w>
простран стве</w>
пути ным</w>
у глуб
экс кур
об основан
ж ность</w>
успе л</w>
кра ю</w>
необходи мую</w>
отве ты</w>
осуществ лением</w>
жда ли</w>
тща тельно</w>
поддержа ния</w>
го ла</w>
националь ными</w>
га ют</w>
по шел</w>
по чув
дру ж
до ход
го н</w>
при су
га пу
англий ском</w>
поясни ли</w>
ро ма</w>
продук т</w>
стре лко
откры то</w>
пла та</w>
фай лов</w>
под суди
разо ча
проек там</w>
заклю чении</w>
поис ка</w>
ма хи
ван ном</w>
доро го
ли ны</w>
газе та
ст ров</w>
связа н</w>
бе ль</w>
еди ного</w>
ов е
сты й</w>
к ноп
жа х</w>
разме ра</w>
ва вших</w>
га на</w>
выдели ть</w>
настоя щим</w>
ф н
би атло
те ре
локо моти
ме ль
о форми
совершенство вания</w>
3 3
показыва ют</w>
обстоя тельствах</w>
швейца рия</w>
поддержи вают</w>
с су
ла уреа
бума ги</w>
фон ды</w>
ри су
прово да</w>
тель ского</w>
ле с</w>
налого об
б ь
рей сы</w>
ос лож
экологи ческой</w>
вре да</w>
на правил</w>
москов ский</w>
отды ха
финансо вый</w>
аль бо
реги оны</w>
наблюда ется</w>
от а</w>
о се
по ступления</w>
незакон ной</w>
подо т
хо тите</w>
реализо вать</w>
совмест ного</w>
и ст
коали ции</w>
собра ть</w>
вы йдет</w>
прави ть</w>
бассей на</w>
сем ью</w>
та ба
отли чается</w>
полови на</w>
пре сти
1 40</w>
б лу
мол ча
двига ться</w>
рос потреб
спо ров</w>
дисципли нар
ме три
музы ки</w>
широ кий</w>
з ины</w>
о чка</w>
уда ра</w>
э ду
си й</w>
само леты</w>
у слыша
цен у</w>
ра т</w>
гаи ти</w>
бель гии</w>
ж ное</w>
покуп ки</w>
родствен ников</w>
ходи ло</w>
ре кти
обра щении</w>
у е
ря до
зо ва</w>
ри о</w>
гото вится</w>
футболи ст</w>
ше сти
развед ки</w>
ам нисти
рати фикации</w>
компани ям</w>
на ка
оказа нии</w>
пар ко
сер де
поез да</w>
ска зыва
дональ д</w>
авто р
кан целя
разви тием</w>
шу юся</w>
ли не</w>
уделя ть</w>
многочислен ных</w>
май к
ю ри</w>
выступа ют</w>
доро жных</w>
генераль ному</w>
ща ться</w>
ви га
появи лось</w>
высо ком</w>
с клады
ложен о</w>
доба вляет</w>
генераль ным</w>
учре ждение</w>
и и
служи т</w>
способо м</w>
докумен тах</w>
митин г</w>
ве чера</w>
принима ются</w>
р гы
жен ной</w>
да ча</w>
мо менты</w>
отече ствен
ива нов
не избе
ти ков</w>
о гла
яро сла
разме сти
пар тию</w>
по кол
реб ят</w>
е ре
само ле
сфе рах</w>
запад ных</w>
вален тина</w>
вы играть</w>
ха би
уче т</w>
афгани стана</w>
тради ционных</w>
образова тельных</w>
ш тур
хо ва</w>
столич ного</w>
сте па
предска зу
о э
связа нным</w>
нача лом</w>
у то
подчеркну ли</w>
изу чить</w>
ка ль
представи ли</w>
под лин
та л</w>
форвар д</w>
отде льно</w>
в .
ды ха
за ем
корректи ровки</w>
кири лл</w>
ка ждая</w>
ч ья</w>
докумен та
кажды м</w>
дру гу</w>
поступ лений</w>
со чи
смотр ены</w>
ка ды
лен ным</w>
влен ный</w>
на вод
сыгра ет</w>
стави ла</w>
моз га</w>
не редко</w>
тив ному</w>
осуществи ть</w>
алкого ля</w>
ци к</w>
про чего</w>
та бе
огром ное</w>
па дает</w>
по что
ы е</w>
груз ин
рас су
неожидан но</w>
финансо вую</w>
крити ко
ру сла
достоин ство</w>
прода вать</w>
в двое</w>
дефици т</w>
чрезвычай но</w>
диа па
да ра</w>
откры ли</w>
ou g
катего рий</w>
ргы з
з ли</w>
p adding</w>
ули цах</w>
та ж</w>
корреспонден ту</w>
вше еся</w>
обрати лась</w>
фак торы</w>
си ро
каса ющимся</w>
занима ющихся</w>
впечат ление</w>
высо кую</w>
ии су
эксперти зы</w>
восстано вить</w>
кост ю
рос нефти</w>
королев ство</w>
отече ственной</w>
либе ра
кон соли
правитель ственных</w>
верси ю</w>
предвари тельного</w>
тер пе
эду ар
основ ное</w>
соревно вания</w>
ре чи</w>
мощ ности</w>
следстви ем</w>
й ском</w>
посоль ства</w>
оцени вается</w>
ва ши</w>
парти й
мер т
си льный</w>
от ы
рован ную</w>
ко ордини
возмож ностями</w>
приблизи тельно</w>
2 .</w>
мо му</w>
специ фи
председа телем</w>
поверх ности</w>
установ лен</w>
само управления</w>
украи ной</w>
ша ются</w>
подоб ного</w>
соответству ющее</w>
ни кого</w>
не далеко</w>
те мати
тин г</w>
впло ть</w>
при ба
исла ми
дополнитель ную</w>
представи телем</w>
са ака
зая вки</w>
присут ствие</w>
юриди ческой</w>
обяза тель
. u
вне с</w>
постоян ных</w>
лла нд
сталки ваются</w>
двер и</w>
це левой</w>
куль туре</w>
напада ющий</w>
с баланси
возмож ное</w>
поясня ет</w>
ат лан
сексуаль ного</w>
пере йти</w>
отме чая</w>
привер женность</w>
намер ении</w>
хо вен
оскор б
гражда нами</w>
че ш
ве рить</w>
и ного</w>
стату се</w>
саака швили</w>
референду ма</w>
доро гах</w>
mic ros
разно образ
пути ну</w>
украин ский</w>
ж ется</w>
сум ме</w>
о чист
принима ли</w>
истре би
тр о</w>
парламен те</w>
прие ма</w>
сообща ли</w>
послед нем</w>
по доро
представлен ных</w>
еже дневно</w>
посе тить</w>
уе фа</w>
подписа ния</w>
з вен
вырази ть</w>
со зы
сла бо
вля ть</w>
шен ной</w>
школь ников</w>
пита ние</w>
правитель ствами</w>
замести телем</w>
проведен ных</w>
влади миру</w>
тихо океан
при йти</w>
тиче скую</w>
пунк там</w>
женщи ну</w>
ва ющим</w>
х ранение</w>
коми ссией</w>
лен ности</w>
га ре
гну ть</w>
пер у</w>
4 ,5</w>
администра тивным</w>
чт ении</w>
ail y</w>
рав ных</w>
количе стве</w>
проис ше
здоров ью</w>
десяти летия</w>
дек с</w>
улья нов
меня ется</w>
верхов ной</w>
ст ки</w>
актив ных</w>
компенса цию</w>
секун д</w>
нава льного</w>
выдви ну
избира тельных</w>
ству я</w>
ш но</w>
север е</w>
пов стан
ги м</w>
л ка
струк тури
пред две
преддве рии</w>
поддержа л</w>
действи тельности</w>
осад ков</w>
вы ходить</w>
об щения</w>
девя ти</w>
м ки</w>
оцен ок</w>
о го</w>
дни е</w>
право суди
посе лка</w>
ри с</w>
ча н</w>
образ у
под де
стре мя
з рева
ара вии</w>
задол женность</w>
об осно
на шими</w>
молодеж ь</w>
кон тр
срав ни
конкре тно</w>
распоря жение</w>
и рак
р ением</w>
инжен ер
изве стен</w>
дальней шей</w>
ш ту
прочи х</w>
направлен а</w>
с на</w>
3 7
об щим</w>
умень ши
ро стом</w>
ба га
а рави
198 8</w>
возмож ной</w>
вось мой</w>
произ во
времен ное</w>
ща ются</w>
вто рую</w>
бу ль
акционе ров</w>
стратеги ческого</w>
в во
бо г</w>
серви са</w>
кратко сро
ли ди
на бор</w>
пер ви
б ру
приобрет ение</w>
организа торов</w>
положи тельно</w>
дела ли</w>
увер енность</w>
ви жу</w>
3 5
гуманитар ных</w>
9 0
о пусти
ла тви
подели лся</w>
использу я</w>
превы ша
возмож ностью</w>
пенси ю</w>
топли во</w>
е тесь</w>
э ста
голо с</w>
хими ческих</w>
1, 6</w>
ван ным</w>
те сти
за ха
под разуме
бос нии</w>
трас се</w>
суд я</w>
проведен о</w>
экспери мента
приеха ли</w>
д ное</w>
л ло
тари фов</w>
квадра тных</w>
т ники</w>
ложи ли</w>
преимуще ство</w>
доклад чика</w>
избира тельной</w>
де ш</w>
р яза
показа теля</w>
она ми</w>
треть их</w>
тель ностью</w>
из уч
отсут ствии</w>
ан ге
пригово ра</w>
досто вер
возмож ного</w>
великобрита ния</w>
норве гия</w>
объясни ть</w>
ком пози
раз реша
ка фе
циф ры</w>
в шуюся</w>
креди ты</w>
ива нов</w>
аб ду
совер шения</w>
цен ностей</w>
на па
бюдже тные</w>
на шел</w>
поис к</w>
рейтин га</w>
сы рье
за цией</w>
нынеш них</w>
метр ы</w>
стра жу</w>
внед рения</w>
со отечествен
серд ца</w>
зав тра
ка мен
выс шего</w>
заня тия</w>
дела х</w>
со един
го вых</w>
гре ция</w>
нынеш ний</w>
жерт вам</w>
олимпиа де</w>
пра вя
гла зах</w>
рели гии</w>
при ми
чен ная</w>
1, 3</w>
распростра няется</w>
сра жение</w>
3 50</w>
смен а</w>
сою зом</w>
сиби ри</w>
орга ном</w>
ь ся</w>
государствен ном</w>
ото з
а ла
к п</w>
ен ная</w>
де бю
кы ргыз
ми т</w>
экологи ческих</w>
не определен
автома тически</w>
оба мы</w>
b .</w>
трен ер
учеб ные</w>
ра д</w>
звез д</w>
ра ды</w>
закры тия</w>
к т
заклю чил</w>
отмети в</w>
о л
то рам</w>
б ак
ста ет</w>
шве ция</w>
обра тить</w>
австра лия</w>
т ка
пере смотреть</w>
ф у</w>
магази н</w>
опублико вал</w>
религиоз ных</w>
рассчиты вать</w>
анали тик</w>
услу гами</w>
коман до
ис чер
ни ку
деж ур
тиче ском</w>
эконом развития</w>
па на
ар ка
говари ва
д ном</w>
у лиц</w>
тридца ть</w>
установлен ных</w>
взаимо действие</w>
полити ков</w>
переда чу</w>
дополнитель ной</w>
по шли</w>
пре ем
ком проми
доказа ть</w>
пото ка</w>
зна ком
т ском</w>
ко сово</w>
одно сторон
наде юсь</w>
то м
согласо вания</w>
применя ется</w>
по л</w>
бори са</w>
друз ья</w>
транспор те</w>
вер а</w>
нен но</w>
ар мия</w>
azaz azaz
активи стов</w>
суд но</w>
собра ние</w>
фак тов</w>
со циали
филь мы</w>
шта те</w>
пря мых</w>
исклю чить</w>
техниче ское</w>
воздуш ного</w>
син гапу
ре цеп
преде лы</w>
спа сти</w>
за ра
опублико вано</w>
назна чение</w>
од ни</w>
чрезвычай ных</w>
мы сли</w>
ко ра
ха й
стара емся</w>
друз ь
кру га</w>
в дох
брас ы
следо вание</w>
поддерж кой</w>
лу р
при ся
рассчиты вает</w>
официаль ное</w>
правоохранитель ные</w>
на ступи
шта т</w>
укрепи ть</w>
о с</w>
у руг
люд ских</w>
нач нут</w>
нуж ден</w>
прода в
обы чных</w>
консуль ти
прось бы</w>
обнару жены</w>
каза н
ма гат
федераль ный</w>
ран ду
югосла вии</w>
использу ет</w>
россий ско</w>
собы тие</w>
места ми</w>
реабили тации</w>
ще йся</w>
приходи лось</w>
магат э</w>
ми ло
г ва
уголов ному</w>
гим на
ви ль
организа торы</w>
при был</w>
дета ли</w>
кп ч</w>
нидерлан дов</w>
а стро
де ц</w>
щ у</w>
постоян ной</w>
не благоприя
по года</w>
собя нин</w>
предлож ением</w>
фак тор</w>
перево да</w>
ба та
муниципали те
ло гов</w>
защи тить</w>
по ль</w>
ки не
со цио
извест ного</w>
одеж ды</w>
фе ро
серби и</w>
потребо вал</w>
сред ний</w>
бло к</w>
жи м</w>
основ ная</w>
ми ть</w>
политиче ская</w>
выда чи</w>
чен ное</w>
разно гла
ст ных</w>
нидерлан ды</w>
прось бу</w>
переме щенных</w>
чи ла</w>
активизи ровать</w>
аль ти</w>
с ьер
цион ному</w>
федераль ном</w>
увиде л</w>
огне стре
напад ение</w>
выез де</w>
потенциаль ных</w>
трене ром</w>
от мы
сдела ла</w>
пя тер
0 ,5</w>
е го
фе р</w>
бо я</w>
внима тельно</w>
зая вок</w>
увер я
поз дно</w>
рус ском</w>
под ъез
обща ться</w>
фило со
про ститу
ще гося</w>
остро вов</w>
центра льных</w>
з ве
значи тельное</w>
но с</w>
сред ствах</w>
боль ных</w>
грани цей</w>
отде лений</w>
выя сня
запа да</w>
заявля л</w>
дол ь</w>
ген директора</w>
им муни
попы тка</w>
ш кой</w>
кон тей
торгов лей</w>
веден ы</w>
не форма
ма кро
расче та</w>
кто ры</w>
им пера
замен ы</w>
стратеги ю</w>
существу ющие</w>
кредито вания</w>
су точ
запрещен о</w>
на бере
предположи тельно</w>
клад би
упа ков
до чер
приводи тся</w>
продук та</w>
определен ы</w>
ведом ств</w>
ля ются</w>
мужчи ну</w>
х ули
ли зацию</w>
комите те</w>
актив ного</w>
проходи л</w>
вы нужден</w>
есте ственно</w>
ни кому</w>
законодатель стве</w>
рассматри ваться</w>
сом нения</w>
до хо
понима ет</w>
ле с
гра н</w>
боеприпа сов</w>
г ек
леген дар
жерт во
бух гал
вра ча</w>
ю щуюся</w>
услови ям</w>
ко ста</w>
не в</w>
общи ны</w>
замеча ний</w>
из обре
ст ены</w>
ва емого</w>
инду ст
позволя т</w>
исполнитель ной</w>
смен ы</w>
цен о
выя вления</w>
га га
сами м</w>
сбер банк</w>
п то
вы ставке</w>
возвра щение</w>
ве тер</w>
возгла вил</w>
го на</w>
выясни ть</w>
ду ше
ри аль
вооружен ные</w>
д ро</w>
времен ные</w>
y right</w>
сельхо з
действу ющего</w>
чи ками</w>
мест ными</w>
тенден ции</w>
пода ть</w>
поез док</w>
м ным</w>
ма ты</w>
то кси
подгото ви
администра тивной</w>
проф сою
полити к</w>
серьез ный</w>
част ные</w>
прокура туру</w>
ря дов</w>
нен ных</w>
мину с</w>
допол нение</w>
черно го
ж ными</w>
россий ское</w>
про игры
у н</w>
фрон та</w>
стоя ть</w>
лет ним</w>
партне р</w>
a c.
в ская</w>
ве й</w>
осно во
мо ста</w>
с жи
узбе кистана</w>
средне сро
возник новения</w>
отсут ствием</w>
народ ной</w>
участво вал</w>
необходи мой</w>
жа ла</w>
ли ге</w>
поли цией</w>
догово ры</w>
програм мах</w>
пере ез
так си</w>
крас но</w>
и ные</w>
ви но
ве к</w>
адвока тов</w>
спосо бен</w>
стаби лизации</w>
сьер ра</w>
судеб ные</w>
за мо
широ кой</w>
ответствен но</w>
та щи
бо я
при з</w>
ле оне</w>
рекла мы</w>
стар ше</w>
ден циаль
в лек
эффектив ное</w>
собствен ность</w>
сы па
минфи н</w>
процен т</w>
баш ки
гра на
де ли</w>
лагер я</w>
се рию</w>
переда ч</w>
куль п
кур сов</w>
запа д</w>
дела ется</w>
ск ло
ве се
авари й
у э
дне стров
ба х
про ще</w>
ы й</w>
нагруз ки</w>
я ко
ст ет</w>
па спор
ня ться</w>
в виду</w>
активи зации</w>
клин тон</w>
хар ь
призна ку</w>
пен альти</w>
а ван
европей ские</w>
афри ка</w>
стаби льность</w>
лет нюю</w>
составля ла</w>
запре та</w>
ма р</w>
о ставил</w>
на ту
ж юри</w>
жиз не
феде ра
зако не</w>
аппара т</w>
фа ши
дальней шее</w>
д ным</w>
жи й</w>
близ и</w>
ч ом</w>
8 0
по годы</w>
м ное</w>
ри со
серьез ную</w>
аресто ван</w>
лич ность</w>
ло ша
наде емся</w>
к са
п л</w>
н ская</w>
вос ходи
продоволь ственной</w>
повре ждения</w>
выпу ск</w>
сен т</w>
трас сы</w>
ор ке
круп ном</w>
дума ли</w>
ки стане</w>
граждан ство</w>
владель ца</w>
россий скую</w>
по ставил</w>
стреми тся</w>
ш вед
3 4
дополнитель ного</w>
приорите тных</w>
мета лли
кариб ского</w>
тур к
теле ви
последу ющей</w>
за бро
уров ней</w>
воз ро
нужда ется</w>
сторо ной</w>
ра ско
п с
гу а</w>
пор тре
дет ский</w>
объясня ется</w>
жда ют</w>
служа щих</w>
вед ению</w>
стади она</w>
учре ди
гра д</w>
кар ту</w>
си лой</w>
тра ги
равен ство</w>
юни до</w>
отсут ствует</w>
го лы</w>
моно поли
получи тся</w>
промышлен ного</w>
бума г</w>
при стра
покупа ть</w>
смер тности</w>
голо вы</w>
мин экономразвития</w>
возме щения</w>
показа ла</w>
присоеди нения</w>
стандар там</w>
ти по
1, 4</w>
иностран ные</w>
агре ссив
по че
ме т
за бра
ствен ность</w>
гаранти ровать</w>
редак ции</w>
ре ль
принадле жности</w>
навер няка</w>
ти лись</w>
транспор ти
и к</w>
бал ло
но ся
призна ется</w>
к сем
госду ме</w>
кон цов</w>
са ла
значи тельный</w>
пер м
стратеги я</w>
заво де</w>
набра л</w>
сю же
ш ар
актив ность</w>
п ья
ха чка
агент ству</w>
опро шенных</w>
сиг нал</w>
ма не</w>
чест но</w>
хорва тии</w>
разобра ться</w>
арти лле
приз вала</w>
ба ни</w>
производи тели</w>
с ноу
за вод
обяза н</w>
норма льно</w>
муж а</w>
на пол
ве ке</w>
согла сен</w>
кри сти
се ми
име я</w>
талан тли
проте сту
посе ща
парламен тских</w>
расхо до
автобу са</w>
ма рина</w>
конструк ции</w>
предме тов</w>
й тесь</w>
потеря л</w>
цен ных</w>
ро ско
в ным</w>
перио де</w>
расследо ваний</w>
бо ров</w>
б ки</w>
1 2,
незакон ным</w>
рассматри ваются</w>
храни ли
зи ю</w>
охва та</w>
по явля
с ью</w>
ст но</w>
фру к
воз ь
воз держа
ожида ть</w>
компонен тов</w>
предпринима тельства</w>
за гру
ня ются</w>
лю бую</w>
под ры
запре тить</w>
патри ар
ниче ской</w>
независи мость</w>
прось ба</w>
л ениям</w>
муниципа льного</w>
исполнитель ного</w>
эфи опи
футболи ста</w>
сде лок</w>
коми ссию</w>
ст ских</w>
помога ть</w>
постано вила</w>
гено ци
ва ции</w>
прове ден</w>
про пор
га стро
ли ст</w>
ран ен
четвер тый</w>
важ ной</w>
требо ванием</w>
сни жению</w>
ники та</w>
отли ча
экспер та</w>
обвиня ют</w>
ба н</w>
эмо циональ
о каж
эффектив ным</w>
ско рей
да ма
соединен ное</w>
сса х</w>
постав щиков</w>
отмен ы</w>
супру га</w>
соединен ного</w>
чрезвычай ной</w>
по рой</w>
руб ри
техниче ским</w>
провер ке</w>
плат формы</w>
во з</w>
веду щий</w>
бюдже ту</w>
нало ги</w>
скан дал</w>
кам бо
узбе кистан</w>
ира к</w>
ло зу
боеви ки</w>
закры ть</w>
та т</w>
води тели</w>
выше упомяну
п об
жа ющих</w>
вмеша тельства</w>
ф ен
га зов</w>
инте гри
восстано влению</w>
экономи ческое</w>
игра ла</w>
развива ющимся</w>
ж ную</w>
мест ному</w>
пере вод
фор му
10 9</w>
не большие</w>
консульта тивного</w>
я вления</w>
объе мов</w>
проходи ли</w>
су хо
ко т
бу ру
инвали д
согласован ных</w>
исклю чения</w>
подозрева емого</w>
клу б
случа ю</w>
надца той</w>
совет ский</w>
неизвест ное</w>
дела л</w>
различ ным</w>
воен ным</w>
при ходит</w>
1 12</w>
отказа лась</w>
реали зация</w>
болель щики</w>
жела ющих</w>
маль чика</w>
спортсмен ы</w>
ко логи
законода тельных</w>
воен ную</w>
род ной</w>
бан гла
ж ского</w>
деся той</w>
к ера</w>
трудя щихся</w>
бу дете</w>
в доль</w>
ль но
север ного</w>
за труд
публи ку
надеж ды</w>
уи лья
част ным</w>
промышлен ных</w>
муль ти
прочи е</w>
тив ности</w>
стар шего</w>
ц кой</w>
обсужда ть</w>
я й
на ступа
ста в</w>
занима лся</w>
то ма
адап тации</w>
подот чет
1, 8</w>
ъем ле
ба таль
го лланд
ато мной</w>
довери е</w>
рас се
полови ной</w>
терак та</w>
доче ри</w>
кни г</w>
ново го
кафе д
хиру р
источ ником</w>
му ся</w>
х ак
террористи ческих</w>
полномочи ями</w>
ра жи
собра лись</w>
ост ров</w>
пре образо
помога ют</w>
опи сы
ветера нов</w>
бе к</w>
ге н</w>
зави сеть</w>
земе льных</w>
геор гий</w>
оказыва ют</w>
р ва
оста лась</w>
меся цы</w>
опера тора</w>
деву шек</w>
народ но</w>
поя вления</w>
зем пля
от ы</w>
от дать</w>
зи мой</w>
в близи</w>
сло жных</w>
та кому</w>
моби льных</w>
москов скому</w>
с бу</w>
ш ины</w>
от бы
авст рия</w>
до мах</w>
выз вали</w>
участ ках</w>
пред ъ
регули ру
ре ви
с м</w>
чув ству
активи сты</w>
издели й</w>
го лки
за ведения</w>
жа ются</w>
ожида ния</w>
созда л</w>
след ственный</w>
американ цев</w>
заня ть</w>
товари ще
сред няя</w>
разгово р</w>
в ное</w>
номе ров</w>
карь еры</w>
тюрь ме</w>
приня тию</w>
удовлетвор ение</w>
завери л</w>
ходатай ство</w>
обследо вания</w>
хозяй ство</w>
дон у</w>
та ли</w>
дево чка</w>
мен и</w>
менедже р</w>
принци пами</w>
теле н</w>
результа та</w>
содержа щихся</w>
кварта л</w>
wp. 29</w>
клу бы</w>
рус ские</w>
м к
домаш них</w>
рован ности</w>
оп понен
ну лись</w>
запа де</w>
гово рю</w>
рабочи й</w>
те сно</w>
выска зыва
ро н</w>
обеспечи вают</w>
дальней ших</w>
ребен ком</w>
соревно ваниях</w>
зая влениями</w>
суда на</w>
ен ное</w>
жало бу</w>
пре восходи
студен ты</w>
зарегистри ровано</w>
жерт вы</w>
огром ный</w>
основ ными</w>
жи теля</w>
коммуника ций</w>
й ская</w>
контак ты</w>
отра жает</w>
мест ности</w>
о тель</w>
ро жде
систе матиче
.co m
урегули рованию</w>
успе ли</w>
обру ши
ле вых</w>
заня ла</w>
под ходит</w>
приня та</w>
бангла деш</w>
лен а
лег че</w>
маке до
всемир ный</w>
мекси ка</w>
установлен а</w>
покуп ку</w>
распреде ление</w>
у сыно
чув ство</w>
ву зов</w>
теле визион
свердлов ской</w>
со отношение</w>
ради остан
ули цу</w>
четвер ть
уча ствует</w>
помо гут</w>
па ро
глубо ко</w>
ар тем</w>
ра стор
конфи денциаль
ры б
уда ется</w>
ре продук
до ви
опол чен
лю ксем
пред ь</w>
пособи я</w>
полож ением</w>
об ши
х э
каса ются</w>
мона сты
ска жем</w>
емо му</w>
указа ния</w>
определя ется</w>
зарпла ту</w>
хан ге
рас па
тай ме</w>
э ска
ядер ным</w>
кар тина</w>
подвер г
об ма
внес ения</w>
ти ру
особы х</w>
вале рия</w>
2 2
зая вку</w>
нов о</w>
расследо ванию</w>
л ков</w>
недо пусти
продолжи тельность</w>
исклю чено</w>
профессиональ ного</w>
ма ври
беру т</w>
ство вало</w>
посо л</w>
услови ями</w>
ни ться</w>
ми ри
годо вых</w>
пав ла</w>
о ска
вспомога тельных</w>
р им
позволи ли</w>
обви нитель
ша гом</w>
м ьян
па не
эк земпля
применя ются</w>
статисти ческих</w>
не приемле
а р</w>
сы лки</w>
энерги ю</w>
существо вание</w>
консульта н
би ли</w>
распростра нении</w>
неот ъемле
центра льного</w>
пре вос
нов у</w>
бо вать</w>
ко жи</w>
современ ные</w>
лени на</w>
ча л</w>
ка л</w>
ме рами</w>
челове ческого</w>
поя вятся</w>
запре щении</w>
нало говой</w>
ис прав
договорен ностей</w>
по ставили</w>
смотр ение</w>
соответству ют</w>
клю зи
использо вали</w>
конвен цию</w>
те д</w>
сред них</w>
осново полага
еха ла</w>
стать ям</w>
c. 3</w>
и л</w>
оз доро
право вые</w>
рен ко</w>
повы шении</w>
тен а</w>
а мби
коле ба
бара к</w>
мар ки
фу нтов</w>
хи на</w>
экономи ческая</w>
ш ко</w>
банков ских</w>
про ли
объя влен</w>
щ ениях</w>
устра нения</w>
ин станции</w>
действи ями</w>
до му</w>
холдин га</w>
зо о
азербайджа н</w>
эк ви
де с</w>
тех нику</w>
экспо зи
ме га
терпи мости</w>
тель ству</w>
то вых</w>
7 0
от бора</w>
низ ким</w>
бир же</w>
тре мя</w>
указыва ется</w>
за су
гва тема
вто рым</w>
буру нди</w>
вступи л</w>
ш ев
стро я</w>
заме д
метро поли
препара тов</w>
в предь</w>
рассмотре л</w>
заме н</w>
эта же</w>
3 6
ли нию</w>
пре ссы</w>
моти ви
х ин
при бе
к во
со постави
госду ма</w>
гендер ной</w>
успе хов</w>
максиму м</w>
вы сказал</w>
кварти ра</w>
са вченко</w>
фа вори
поня л</w>
нега тивно</w>
ин вест
ги на</w>
ту ро
судеб ное</w>
инстру менты</w>
осно вой</w>
ти вов</w>
обвиня емого</w>
каз ни</w>
одно зна
напра влен</w>
дер жек</w>
кон тен
подтвер дить</w>
ве щей</w>
угро за</w>
пи тер
си он
винов ных</w>
един ства</w>
произо шли</w>
дости г</w>
согласи лись</w>
силь ней
увер енно</w>
ка ла
пересмо тра</w>
венг рии</w>
обнару жено</w>
тя тся</w>
соб ран
голо в</w>
право вого</w>
пи а
принима л</w>
счита л</w>
про сят</w>
1, 7</w>
приз вали</w>
й н</w>
само му</w>
космо нав
ег э</w>
ма тви
золо та</w>
налогооб ложения</w>
раз говари
або нен
целе вых</w>
магази на</w>
торговл я</w>
бе лого</w>
пробле мах</w>
бли зо
футболи сты</w>
в носить</w>
эффектив ные</w>
за стре
вкла ды
предотвра щению</w>
ассигно вания</w>
креди та</w>
мо ря
ограни чение</w>
ш ься</w>
ассигно ваний</w>
региональ ным</w>
отправи ть</w>
пред принять</w>
поя вление</w>
праздни ка</w>
руковод ству</w>
прове рок</w>
облада ют</w>
усили ть</w>
безработи цы</w>
чемпи оном</w>
вля ется</w>
приобрет ения</w>
мин здра
коми ссий</w>
с ным</w>
чемпи она</w>
лит вы</w>
интере сам</w>
не бо</w>
ли лся</w>
церков ь</w>
самы ми</w>
с провоци
кра й</w>
мене джер
эр до
хими ческого</w>
о р</w>
договори ться</w>
па тен
д р.</w>
3 8
лич ко</w>
тор гового</w>
совет ских</w>
дол ги</w>
деше вле</w>
полицей ского</w>
за каза
ох ла
инвесто ры</w>
до мини
k ase</w>
финлян дия</w>
табли ца</w>
журнали ста</w>
облига ций</w>
опера тивных</w>
увеличи лось</w>
назначи л</w>
c .</w>
ав то</w>
судь ба</w>
побе дил</w>
гово м</w>
лен ко</w>
контрак ты</w>
руб ль</w>
уточ няет</w>
двусторон них</w>
по ля
и са
ауди то
предыду щие</w>
ва емой</w>
полити кой</w>
усили ях</w>
коммер ческой</w>
посе щения</w>
бур г
подтвер дила</w>
1 1
экви вален
консенсу са</w>
на шему</w>
луч шего</w>
сне г</w>
содержа щиеся</w>
защит ники</w>
челове чества</w>
кален дар
гор но
ста циона
с кульп
пользова тели</w>
про ходя
примени тельно</w>
высо кая</w>
оши бок</w>
карти ну</w>
футболь ного</w>
диа гно
беремен ности</w>
христи ан
индоне зии</w>
ше ва</w>
португа лии</w>
ди верси
вне зап
внес ении</w>
соблюд ением</w>
к р</w>
ад ца
вен адца
ве са</w>
с пло
п хен
э ги
х им
ки рги
а гро
2 1.
двига теля</w>
во шел</w>
воздуш ных</w>
то чек</w>
сформули рованных</w>
девя той</w>
че хии</w>
ля л</w>
восто к</w>
от ставке</w>
поли т
бра т</w>
матви енко</w>
по е
то ре</w>
ку бан
d .</w>
пенсион ного</w>
дефици та</w>
мол дова</w>
мониторин г</w>
экономи и</w>
подроб ности</w>
бло ка
ф т</w>
опера торов</w>
побе дить</w>
о са
га ра
мин ске</w>
о .</w>
уда ров</w>
расши рен
рей сов</w>
государ стве</w>
администра тивные</w>
во роб
фаль си
диви ден
ставро поль
да т
националь ная</w>
ис пра
раз влека
фика ция</w>
чи ку</w>
действи ям</w>
тера пи
росто вской</w>
оэ ср</w>
оке а
хозя ев</w>
круп ный</w>
д ского</w>
музы ку</w>
с .
предыду щего</w>
уваж ение</w>
ниже городской</w>
вы пи
эги дой</w>
оконча нии</w>
по жизнен
о кажется</w>
во пло
затро ну
опла ту</w>
реши тельно</w>
исполнитель ный</w>
вспомина ет</w>
ме ло
ро стов</w>
т ел
реа л</w>
влади слав</w>
измен ении</w>
памя тник</w>
кос нов
свед ений</w>
комите тов</w>
попа ла</w>
просве ти
цве т</w>
приорите тов</w>
мужчи нами</w>
контроли ру
ев на</w>
ля ться</w>
балан с</w>
поощ рять</w>
мето д</w>
фло т</w>
вы двига
ни лся</w>
кри п
ра ш
опи ра
аф ган
дере вя
щен ный</w>
ев рази
пла ну</w>
да ту</w>
у сугу
ва кци
соответству ющую</w>
покупа телей</w>
строи тельных</w>
сексуаль ной</w>
су ду</w>
тре ти</w>
ен ными</w>
увелич ению</w>
до ставили</w>
разъя сни
пере шел</w>
ложен ы</w>
обстанов ки</w>
ме стом</w>
анали зировать</w>
м нений</w>
ле до
встрети лся</w>
влади восто
пожа ло
владе ет</w>
ко вы</w>
вл ю
вы нес</w>
хозяй ств</w>
выпол няет</w>
сереб ря
мо ди
проспек те</w>
вече р</w>
при ходят</w>
се веро
ри те</w>
ле д</w>
выз вал</w>
ви не</w>
ощу щение</w>
индек с</w>
гори зон
ли зма</w>
та м
кар тин
долла р</w>
ди визи
собствен ный</w>
финанси ровании</w>
реаль ной</w>
локомоти ва</w>
и бо</w>
груп пам</w>
выз вало</w>
недвижи мость</w>
по вез
попы тке</w>
зна ча
ста мбу
бло ге</w>
10 1</w>
ти пов</w>
ма ра</w>
жиз нью</w>
кос вен
до н</w>
поли кли
фра г
со ло
бизне смен</w>
на вига
разви ваться</w>
националь ную</w>
ка да
диа ло
лан д</w>
спектак ль</w>
ли ней
произошед шего</w>
ко вич</w>
занима л</w>
производи тся</w>
к личко</w>
сто н</w>
ку бы</w>
13 ,
ме рам</w>
0 2.
воспита н
улуч ши
москов ских</w>
спон со
провед ением</w>
ли це</w>
а ги
мо ему</w>
у ган
гри п
глу би
мо их</w>
семь ям</w>
ми не
независи мых</w>
ли ва
кни гу</w>
обеспоко ен</w>
румы нии</w>
па ра</w>
ознакоми ться</w>
t .
преду смотрены</w>
ч ков</w>
мар к</w>
пе ки
важней ших</w>
существ у</w>
а сада</w>
рекоменду ется</w>
ли вана</w>
гости ницы</w>
одоб рил</w>
тенден ция</w>
4 5
тер ми
фак тором</w>
опро са</w>
а ку
ли ний</w>
ди ции</w>
болга рия</w>
экологи чески</w>
молодо го</w>
спор тивной</w>
дости г
пом ню</w>
our n
точ ными</w>
опера тивного</w>
свобод ного</w>
казах стане</w>
мо не
нако плен
ли стов</w>
глоба льном</w>
у каз</w>
за платить</w>
четвер о</w>
н ному</w>
бе спи
проголосо вали</w>
прива тизации</w>
за жи
рас писа
созда ют</w>
отпу ск</w>
ис правитель
не прави
г н</w>
эста фе
комменти ровать</w>
ля м</w>
марке тин
беспи ло
вороне жской</w>
измер ения</w>
государ ствах</w>
доро же</w>
сим феро
бан ди
выз вать</w>
покуп ке</w>
применя ться</w>
обвиня емых</w>
ступ ен
региональ ный</w>
автомоби ле</w>
утвер дил</w>
ув д</w>
правитель ствам</w>
сообще ством</w>
ком сомо
имен о
инспек ции</w>
респонден тов</w>
паке та</w>
выда че</w>
статисти ке</w>
си н</w>
мен о
по является</w>
ро ман
ма нев
увиде ли</w>
анти моно
про стой</w>
сто ла</w>
пер ми</w>
требо вать</w>
бе спокой
б ке</w>
представи телям</w>
ба ев</w>
ва емый</w>
устано влению</w>
в переди</w>
народ ных</w>
ру ками</w>
сп ч</w>
титу л</w>
ди тся</w>
получа ли</w>
подгото влен</w>
роди ну</w>
надлежа щего</w>
предотвра тить</w>
заинтересован ными</w>
вед ением</w>
направл ениям</w>
миро вом</w>
по бо
корпу са</w>
автори те
анали тики</w>
продоволь ствия</w>
укреп лять</w>
обо ст
буду щей</w>
ло с</w>
двер ь</w>
у ходит</w>
ри к</w>
актри са</w>
требо ваниями</w>
от тен
оппози ция</w>
мол да
кру шения</w>
штра фа</w>
занима ют</w>
говори лось</w>
преимуще ства</w>
сы рья</w>
посе тил</w>
бель гия</w>
кине мато
обо га
сцена рий</w>
на учи
угро з</w>
схе мы</w>
198 6</w>
чрез мер
у ступа
сред ствам</w>
полож ениям</w>
гра да</w>
пре ки</w>
пе ра</w>
сло ву</w>
усили ям</w>
ро жда
дни й</w>
предме ты</w>
е вым</w>
сти ле</w>
во е
да я</w>
уров ню</w>
зам министра</w>
сче там</w>
постав ку</w>
нава льный</w>
3 .</w>
экономи ческом</w>
dist r</w>
а э
а за
част ный</w>
умень шения</w>
надеж да</w>
ле тию</w>
рыбо лов
люби т</w>
да нии</w>
иг ру
большо м</w>
кад да
государствен ными</w>
жур нал</w>
о кла
по ка
пострада вшим</w>
ш ор
r .
ра мо
по бу
явля ющихся</w>
с можем</w>
пе сен</w>
дер ы</w>
гру зия</w>
ни кнуть</w>
случа я</w>
ку бо
0 1.
со сла
сообщ ениям</w>
ар ханге
переда л</w>
пона доби
вар д</w>
располага ет</w>
бе лых</w>
совет ской</w>
та на</w>
заверши лся</w>
промышлен ной</w>
полицей ский</w>
доба вила</w>
не сен</w>
ки р
вы зывают</w>
стоя ние</w>
доба влено</w>
кадда фи</w>
мо т</w>
перво очеред
гек та
объ емом</w>
возника ют</w>
выступ лений</w>
интерфак су</w>
развива ющиеся</w>
опреде лении</w>
освобо дить</w>
поме щение</w>
ходи ла</w>
налого вых</w>
смыс ла</w>
банков ской</w>
организа циях</w>
па у
юж но
нен а</w>
конвен ций</w>
т я</w>
жи тельства</w>
пре прово
столи цу</w>
ра сти
то сть</w>
хоро шая</w>
прия тно</w>
право вым</w>
действи ем</w>
различи я</w>
евро союз</w>
ак т</w>
необходи ма</w>
транспор тные</w>
брон зо
обра баты
экономи ть</w>
ле ку</w>
води тся</w>
лу ж
в ступ
оборо не</w>
но вей
указа нные</w>
бро си
совет ник</w>
д ную</w>
под вод
учеб ного</w>
голо вой</w>
продолж ения</w>
2 2.
авто мати
граждан ским</w>
представлен ные</w>
сирий ской</w>
лли ву
вир туаль
количе ству</w>
спи дом</w>
от стаи
вре д</w>
и гна
вы па
ко фе</w>
кандида туру</w>
по лета</w>
дости жении</w>
круп ного</w>
бюдже тным</w>
информи рует</w>
стан ция</w>
насе лением</w>
соответ ствия</w>
егип те</w>
анаста сия</w>
ро го
програм много</w>
понима нии</w>
ми ни</w>
лен д</w>
взрыв ча
раз да
ку ли
сти ческих</w>
ж ин
й ские</w>
слу ги</w>
коммуника ции</w>
арген тина</w>
ров ую</w>
ув кпч</w>
смо лен
т на</w>
те л</w>
во ли</w>
сти ка</w>
влия ет</w>
благо получи
устано вление</w>
сове то
к ня
выпла тить</w>
извест ные</w>
сва дь
твер ской</w>
поясни ла</w>
сне го
техниче скую</w>
.u a</w>
т ение</w>
моск вой</w>
конкре тного</w>
вели коле
удар ы</w>
при шло</w>
0 4.
африкан ского</w>
импор та</w>
спут ни
низ кой</w>
люд мила</w>
слу хи</w>
ва шем</w>
маль чик</w>
пода леку</w>
леги ти
м г
описа ние</w>
инстру мент</w>
возду хе</w>
ло б
обеща ет</w>
владель цы</w>
продли ть</w>
произ ведения</w>
ви нова
ча к</w>
су дить</w>
c .1</w>
бал лов</w>
награ ды</w>
полу защитник</w>
карь ере</w>
ре пре
п ь
геро ев</w>
бизнесмен а</w>
е ров</w>
про цве
подоз рению</w>
попыта лся</w>
19 70</w>
з ь</w>
взя ла</w>
с р
работ ку</w>
жи н</w>
креди тных</w>
загряз нения</w>
запре ща
пуска ть</w>
стра ницы</w>
озаглавлен ный</w>
теку щей</w>
в э
бе ско
хо дор
предме том</w>
изо ля
стихи йных</w>
состави ло</w>
ра диа
примен ению</w>
учрежд ениям</w>
ме ров
1 70</w>
ча не</w>
переда ны</w>
по пе
дела ми</w>
мо ги
при частности</w>
сторо нам</w>
ис ход
проводи ли</w>
газета .ru</w>
воору жения</w>
демо графи
ли цу</w>
верну лись</w>
па кистан</w>
дене жные</w>
кам ча
пре мию</w>
положи ть</w>
от боро
рос нефть</w>
чи кам</w>
тяже лом</w>
0 3.
стро го
за дума
политиче ское</w>
откры т</w>
би л</w>
ри ско
разме щение</w>
увеличи лся</w>
ш ов</w>
раз ли
проводи лись</w>
слы шать</w>
присоедини ться</w>
лу а
графи к</w>
выступи ла</w>
л ле</w>
благо полу
до в
побе д</w>
о ча
преимуще ственно</w>
юрисдик ции</w>
програм мами</w>
ка й
жен ного</w>
бар го</w>
предъ явля
мона ко</w>
за моро
образо вании</w>
в зи
раси зма</w>
индуст рии</w>
констан ти
промеж уточ
противоре чи
игро ком</w>
заявля ют</w>
съ емо
привлека ть</w>
груз ки</w>
тео ре
лет ние</w>
информа ционного</w>
ограни чить</w>
культур ной</w>
про хо
крас ной</w>
недо пу
отмен е</w>
рее стр</w>
и с</w>
л ё
со тен</w>
обсу ждений</w>
архи те
подчеркну ть</w>
та нии</w>
пожа рной</w>
по иска
реаль ных</w>
каж дую</w>
10 2</w>
управля ть</w>
минфи на</w>
укреп лении</w>
зам главы</w>
ма дри
дет ские</w>
литера тур
мекси ки</w>
част ной</w>
жене ва</w>
рас смотрит</w>
близ ких</w>
в праве</w>
природо охран
арген тины</w>
внесен ы</w>
к с
во время</w>
присут ствия</w>
до ставки</w>
принци пу</w>
1 15</w>
достоин ства</w>
та ли
аб ха
ч ре
най тед</w>
по сла</w>
свобод но</w>
пособи й</w>
инду стри
объя влено</w>
отве тили</w>
с ную</w>
бра к</w>
то ки
принци пах</w>
москов ском</w>
люб ят</w>
выра жения</w>
сти ки</w>
ожида ют</w>
донба сса</w>
спец служб</w>
мене дж
у мвд</w>
составля л</w>
кампа нию</w>
сю р
раз ница</w>
язы ков</w>
оли гар
под ходов</w>
огром ные</w>
про писа
куль тур</w>
широ кое</w>
ра к</w>
сре да</w>
ба ла
обно вления</w>
кер ри</w>
. ru.</w>
проек тах</w>
за га
националь ное</w>
по год
из и
из бы
о ре
офи с</w>
субси ди
запу ска</w>
рова лась</w>
ф рг</w>
объ явля
готови т</w>
ка кими</w>
снизи лся</w>
проведен ного</w>
ска з
мо л</w>
выбира ть</w>
воздуш ное</w>
справи ться</w>
усло вно</w>
подписа н</w>
мас сы</w>
вы вести</w>
контак тов</w>
вашингто не</w>
и вана</w>
указа ть</w>
повлия ть</w>
б ль</w>
пода рок</w>
учи телей</w>
по просили</w>
десяти ле
ат ле
ю найтед</w>
подпи сей</w>
откры вается</w>
ре структури
за писа
резо нан
у тся</w>
уведо мления</w>
поль ше</w>
3 9
ла м
осведом ленности</w>
фон до
а бра
реаль ного</w>
ресур сах</w>
заня тий</w>
хаби тат</w>
ко вый</w>
определя ет</w>
брюссе ле</w>
выигра ла</w>
годо вой</w>
незакон ных</w>
мемо ранду
ом буд
тер п
лег кой</w>
па ры</w>
пользу ется</w>
сту дии</w>
выра жении</w>
с ене
пла тель
косми ческих</w>
ада пти
предупре ждение</w>
га ла</w>
стади он</w>
кораб ля</w>
ак ва
обще ством</w>
откры тым</w>
экономи ческую</w>
па спорт</w>
луч шей</w>
район ный</w>
ди ф
возглавля л</w>
д рав
переход ной</w>
обеща ют</w>
тру дом</w>
законода тельные</w>
ка ре
у годно</w>
серьез ным</w>
дэ вид</w>
минист ру</w>
о со
го сте
го вый</w>
дости гли</w>
ствен ному</w>
шо й
раз решить</w>
п ени
форма т</w>
4 8
за ведений</w>
американ цы</w>
у ход</w>
каждо е</w>
стаби лизи
кан ц
подписа ть</w>
тари фы</w>
ш ений</w>
щи ком</w>
тив ность</w>
п ины</w>
про звуча
преодоле ть</w>
мошенниче стве</w>
глав ные</w>
особы й</w>
бюдже тов</w>
уси ления</w>
приня той</w>
незамедли тельно</w>
го мо
ча ли</w>
держа ние</w>
по го
критери ев</w>
объя вления</w>
больш его</w>
за н</w>
раль ных</w>
подоб ное</w>
т ство</w>
дональ да</w>
в ведении</w>
оцени л</w>
настоя щих</w>
милли он</w>
не ры</w>
раз ным</w>
обра тил</w>
г т
се пара
на зывает</w>
профила к
им порт</w>
встрети ться</w>
въез д</w>
а ли</w>
в веден</w>
характери зу
публи чно</w>
тиче скими</w>
разру ши
серьез ной</w>
спи да</w>
а мур
бо га</w>
лондо н</w>
чинов ника</w>
са на</w>
заклю чению</w>
ду бли
жи те</w>
при нес</w>
меда ль</w>
ко ти
ре шает</w>
субси дий</w>
нен ный</w>
н ур
поступи л</w>
трав му</w>
м ес
л нр</w>
предоставля ется</w>
бес челове
достигну т</w>
л .
ар мян
а стра
4 7
та ра
гла з</w>
к сен
ме да</w>
этниче ских</w>
за хоро
отды х</w>
дерев ни</w>
прия тие</w>
че раш
по жилых</w>
о штрафо
колумби и</w>
манда тов</w>
противоре чит</w>
1 25</w>
долго е</w>
холо дной</w>
пес не</w>
ко меди
прове дут</w>
ва з</w>
сай тов</w>
род ных</w>
переда ча</w>
дол гов</w>
га ли</w>
ка р</w>
тель ские</w>
уделя ется</w>
поощ рение</w>
докумен ту</w>
субси дии</w>
ссы лки</w>
тре м</w>
не вер
от лично</w>
торго вые</w>
се ссий</w>
удиви тельно</w>
ап те
вре за
действу ющие</w>
пря мые</w>
веду тся</w>
необ основан
полков ник</w>
обви нили</w>
расположен ы</w>
иностран ным</w>
проис ходят</w>
сдела ет</w>
ма х
специализи рованных</w>
секретариа том</w>
ка мер</w>
ду шу</w>
откры тии</w>
п и</w>
составля ть</w>
про мы
пи ты
привод ятся</w>
ислам ское</w>
производи ть</w>
ска ть</w>
полу го
лег ких</w>
заня ться</w>
вы ку
гу р
популяр ных</w>
энер гос
еди нок</w>
клу бом</w>
по ра</w>
расположен ных</w>
за праши
завер шении</w>
соверши ли</w>
практи кой</w>
ков ской</w>
кри терии</w>
ду м
таджи кистана</w>
пеше ход
мо ст</w>
к от</w>
под ходы</w>
родствен ники</w>
при ка
тяже сти</w>
ве та</w>
ро ма
со действию</w>
креди там</w>
юж ного</w>
надлежа щих</w>
я сни
без работ
устойчи вости</w>
победи телей</w>
ти тся</w>
эм барго</w>
кип р</w>
от ставки</w>
0 .
са мую</w>
ле чеб
соответ ствовать</w>
4 9
ве си
люб лю</w>
чи в</w>
трудо вых</w>
ров кой</w>
ку бани</w>
ф то
по жертво
ле сов</w>
прак тических</w>
му тко</w>
соеди нения</w>
палестин ского</w>
жи лого</w>
пло хо
доб раться</w>
вариан та</w>
0 6.
вен е</w>
суме л</w>
еже днев
ди е</w>
помо гли</w>
глав ную</w>
долгосро чной</w>
последстви ях</w>
памят ника</w>
до ктор</w>
представлен ный</w>
группо вого</w>
ак тера</w>
ми ссия</w>
сцен ы</w>
сыгра ли</w>
ре акции</w>
о крест
соста вления</w>
ле вого</w>
оцени вает</w>
не плохо</w>
фунда мента
щен ной</w>
состоя ться</w>
строи тельной</w>
мусуль ман</w>
счаст ью</w>
en gl
бы вшие</w>
убе жден</w>
призна ки</w>
клас сов</w>
розы ск</w>
трав м</w>
боль шими</w>
коллега ми</w>
под контро
красно дар</w>
повест ке</w>
отче ты</w>
медицин ские</w>
ра ка</w>
фо м</w>
рас сказать</w>
я цен
тра к
проез д</w>
опублико ван</w>
голо ве</w>
ч ника</w>
со став
ма сса</w>
науч ной</w>
раз мини
возобно вля
под нять</w>
са на
экологи и</w>
сред ством</w>
докла дах</w>
исла н
реаль ности</w>
призна ны</w>
ло н</w>
визо ров</w>
она л
вырос ло</w>
ди лся</w>
ф ао</w>
од нажды</w>
раз ор
секун ды</w>
столкну лись</w>
араб ской</w>
нк о</w>
желез ной</w>
смотре ли</w>
устано вил</w>
север ная</w>
хва тило</w>
вырази ла</w>
мя ча</w>
ти ра
дан ную</w>
ль ская</w>
саль ва
выде лено</w>
с бере
екатеринбур ге</w>
пре р
ван ное</w>
про ник
х ос
смен у</w>
по гру
состоя вшейся</w>
л ках</w>
потреб ление</w>
реаль ные</w>
1, 1</w>
ли це
фестива ле</w>
мо н</w>
стра ницу</w>
массо вые</w>
си гаре
откры тых</w>
пе н</w>
партне ра</w>
м ла
ре интеграции</w>
клиен та</w>
й ки</w>
избра н</w>
изде лия</w>
финансо выми</w>
нес ла</w>
вер пу
раун да</w>
повто ря
пло до
обно влен
возник ли</w>
выра щи
пада ют</w>
ста ну</w>
крем ле</w>
ак ка
ти ку</w>
бан ку</w>
чеч ни</w>
ан ну
горо жан</w>
трибу нала</w>
литера туры</w>
и дей</w>
мен ю</w>
тель ницы</w>
держ ка</w>
прожи вающих</w>
доро га</w>
ро и
ва вший</w>
подмосков ья</w>
4 6
ч ками</w>
луган ской</w>
восста навли
су дах</w>
кубо метров</w>
рас ста
аэ род
объеди нение</w>
де сан
мл ении</w>
определен ной</w>
доступ ны</w>
ста ри
ц уз
центра х</w>
198 7</w>
собствен но</w>
фи ла
оте ле</w>
согла сны</w>
за работать</w>
психи а
точ ного</w>
ро ском
приве ла</w>
ка то
возгла вляет</w>
мощ ность</w>
вер ховен
не подалеку</w>
ра зу
вой ти</w>
конкре тной</w>
непри коснов
14 ,
последу ющие</w>
лик вид
ниге рии</w>
руководи телем</w>
француз ского</w>
т нее</w>
ува жа
сло жной</w>
португа лия</w>
формиро ванию</w>
нефте газо
пор та</w>
поко ление</w>
педаго ги
ни ну</w>
ти лась</w>
анд желе
справедли вого</w>
доброво льных</w>
дополнитель ный</w>
о кра
стер а</w>
тех но
горо дом</w>
прави лами</w>
мо менту</w>
р онал
викто рия</w>
пусти ла</w>
лозу н
ди ле
меди а</w>
мг нов
азиат ско</w>
инвести ционных</w>
прогно зам</w>
агре ссии</w>
го су
та ют</w>
челябин ской</w>
вкла д
задол го</w>
пес ня</w>
вашинг тона</w>
с ед
вер тика
смотре л</w>
серге ем</w>
ль да</w>
центра лизо
близ кий</w>
коллек ции</w>
си ле</w>
ш ер
еди ный</w>
ку ба</w>
пе хот
поста ра
при говорил</w>
вар ша
15 ,
ва ющая</w>
компью тер</w>
ос пари
рей с</w>
го дами</w>
мусо ра</w>
дет ства</w>
1 11</w>
купи л</w>
доба вив</w>
реда ктор</w>
части е</w>
запас ы</w>
закуп ки</w>
противо действия</w>
к голь
и ным</w>
м .
рыно чной</w>
мон го
ro id</w>
ко роб
су щ
многосторон них</w>
защи ща
ма ра
па спорта</w>
де ба
пожалу й</w>
ко л</w>
прокура туре</w>
инфра структуру</w>
обществен ный</w>
мин ю
норма м</w>
изу чение</w>
комфор тно</w>
побе дой</w>
распростра нению</w>
ба ша
определя ть</w>
опас ения</w>
реги ону</w>
написа ла</w>
к к</w>
насили ем</w>
тре з
рабо чем</w>
увеличи лась</w>
ре к</w>
мор ю</w>
чув ства</w>
мощ ностью</w>
ш ю
трудо вой</w>
поч те</w>
ви зу
хоро шей</w>
привле чение</w>
компетен ции</w>
вер е</w>
потер ь</w>
представи т</w>
номина ции</w>
контро ле</w>
ан ка
сро чно</w>
пре да
сти пен
следу ющую</w>
серби я</w>
о нер
перен ес
го вые</w>
тру бо
слу шать</w>
великоле п
ал ба
пользова теля</w>
цик л</w>
оп ьян
ду хе</w>
тре й
хи е</w>
дерев не</w>
ги пер
установлен ные</w>
сопер ников</w>
ли зм</w>
ша ра
татар стана</w>
ли верпу
спосо бы</w>
по летов</w>
разде ла</w>
лекар ства</w>
техниче ский</w>
разнообрази я</w>
па ле
либе рии</w>
теле фона</w>
пробле мати
вез де</w>
у ез
состоя тся</w>
те ста
ж ья</w>
до ставля
бу н
лен но</w>
пу сты
при днестров
фар ма
ст ре</w>
ан у</w>
ново сть</w>
количе ством</w>
сов ку</w>
креп ление</w>
т та</w>
вла стью</w>
гу п</w>
оцени ли</w>
конкре тным</w>
ме ру
пере рабаты
си льные</w>
указыва ют</w>
муз ее</w>
un .org</w>
обно вление</w>
спа сибо</w>
о собой</w>
проце ссом</w>
г .
чер ный</w>
назна чении</w>
за каз</w>
обслужи ванию</w>
за по
сцен у</w>
кров ь</w>
мя са</w>
вкла дов</w>
стар т</w>
рован ном</w>
на сы
мусуль ман
повсе днев
по служи
лли н
пи к</w>
бел та</w>
социаль ную</w>
лож ений</w>
моли т
возмож ном</w>
198 5</w>
беспоряд ков</w>
тен ы</w>
город ские</w>
капита н</w>
сосе дних</w>
га нов</w>
призы вом</w>
кар те</w>
при мо
сепара ти
вет ра</w>
об л
чен ную</w>
руби н</w>
семь ей</w>
счита ются</w>
с хва
учи ли
пожа ров</w>
инте рак
за пове
ку си
фи и</w>
по ва
меня ет</w>
следу ют</w>
отправи лся</w>
го та
хи я</w>
x ix</w>
пере хва
отве тов</w>
митин га</w>
ге рой</w>
солн ца</w>
ш ри</w>
мо ментов</w>
действу ющим</w>
ка п
з с</w>
й ный</w>
о чки</w>
гово р</w>
пленар ном</w>
при меры</w>
до говарива
определен ный</w>
нали зации</w>
ок тябрь
д к</w>
ресур сам</w>
ак креди
пов лек
слож нее</w>
специали ста</w>
препят ствий</w>
наблюда ть</w>
худож ника</w>
бо ло
ма л</w>
вы ходе</w>
бе р</w>
сен ко</w>
лена пра
10 4</w>
турк мени
эска ла
свобо де</w>
обы чного</w>
на та
университе те</w>
юж ный</w>
информа ционное</w>
искус ств</w>
в ме
оправ да
ве домо
говори м</w>
откры том</w>
устро или</w>
мурман ск</w>
расши ря
к ли</w>
под да
оцени вать</w>
уче сть</w>
ост рова
кораб ль</w>
конфлик ты</w>
4 .</w>
важ ности</w>
появи ться</w>
види мости</w>
твор чества</w>
щен ного</w>
rev .1</w>
раз реш
ма сте
россий скому</w>
о ке</w>
чи сто</w>
ра мок</w>
гово е</w>
совер шить</w>
с бе
бал ти
ма го
от туда</w>
сохра няется</w>
упа ла</w>
ли ния</w>
вы ста
напом нить</w>
ме тео
игро й</w>
кило метрах</w>
име ла</w>
хорва тия</w>
круп ной</w>
призна вая</w>
вклю чение</w>
рекоменда цию</w>
ти зи
ули ца</w>
то ка</w>
шой гу</w>
ас фаль
ced es</w>
води т</w>
ли к</w>
жела ния</w>
поез дов</w>
сом ненно</w>
снизи лась</w>
с ской</w>
при дет</w>
назна чить</w>
тен ге</w>
де ров</w>
пере вести</w>
министер стве</w>
ша гов</w>
2. 1</w>
това р</w>
зарегистри рованных</w>
предусмотрен ные</w>
ка ть</w>
ро вой</w>
по и
мен тах</w>
вз ро
британ ского</w>
т кам</w>
преступ ников</w>
надца ть</w>
голу бы
башки рии</w>
sep tem
подтвер ждения</w>
призна нии</w>
к г
учи теля</w>
ву т</w>
магази нах</w>
останов ки</w>
категори чески</w>
ар кти
террито рия</w>
спаса тели</w>
мо в
защи той</w>
нд с</w>
ито гов</w>
ка лу
ок но</w>
бе спокои
доро гой</w>
дожд ь</w>
жерт вой</w>
се ссию</w>
раз гро
объединен ной</w>
пропаган ды</w>
сти ль</w>
гота вли
жела нии</w>
нуж ды</w>
кни га</w>
про движения</w>
у кло
а п</w>
поез д</w>
реа нима
долж ным</w>
сто кголь
ассо ции
бо ль</w>
2 12</w>
му ля
индивидуаль ных</w>
хри ста</w>
э й</w>
продолжа ются</w>
сало не</w>
л кой</w>
top ic
опера циях</w>
ре ста
ата ко
кварта ла</w>
10 6</w>
жа лу
чи стой</w>
после до
подготов кой</w>
искус ство</w>
собствен ную</w>
жда л</w>
хоро шее</w>
барсело ны</w>
пен та
сне га</w>
заверши лась</w>
выигра ли</w>
би н</w>
крем ль</w>
ду ши</w>
бое вой</w>
самми те</w>
ц кая</w>
разуме ется</w>
штра фы</w>
януко вича</w>
о зер
ль ника</w>
таилан д</w>
александ ру</w>
креди тной</w>
ве ч
к ля
ри са</w>
дости гла</w>
реаги ровать</w>
се ра</w>
заинтересо ваны</w>
пала та</w>
име ющиеся</w>
эта п
американ ским</w>
ищ ут</w>
ки бер
фрон т</w>
показа ний</w>
е ром</w>
мыс ль</w>
сложи вшейся</w>
те ге
находи лась</w>
дво ре</w>
са л
уби т</w>
уча ствующих</w>
жи ве
раз дра
живо пи
продук ция</w>
призна ла</w>
ж ениям</w>
бур ге</w>
ко ва
иностран ного</w>
рекомендо вала</w>
пере смотр
на сла
уси ление</w>
выясни ли</w>
в до
пол ным</w>
закон ности</w>
призна ют</w>
ауди тории</w>
мин ск</w>
жен ой</w>
ано ни
5 5
австра лий
здоров о</w>
обраща ется</w>
заплани ровано</w>
4 50</w>
посвящен ный</w>
це в
несколь кими</w>
раз ве</w>
представи тельство</w>
каби нета</w>
за держи
це ленапра
помощ ника</w>
при бре
ленин градской</w>
ров но</w>
комплек сного</w>
финанси рованию</w>
януко вич</w>
э н</w>
му хам
сто лом</w>
противо полож
обследо вание</w>
ли ви
полу острова</w>
ф син</w>
клиен там</w>
уро жен
успеш ного</w>
ду х</w>
производи теля</w>
гон ке</w>
пре ссе</w>
крас ного</w>
вз ве
арен е</w>
де в
ан т</w>
ту с</w>
да влением</w>
ры бы</w>
г роз
се рий
рассмотр ены</w>
коммуника ционных</w>
к ей</w>
зая влению</w>
форма х</w>
беско не
ак ци
за н
отве чают</w>
ор а</w>
опера тив
ви с</w>
по рази
актив ной</w>
арти ст</w>
водо снабжения</w>
атмо сферу</w>
поня тие</w>
секто рах</w>
ба б
ав стри
син те
кар та</w>
м дп</w>
узна л</w>
тель ны</w>
из учи
tele gr
право порядка</w>
собира ть</w>
венг рия</w>
погиб шего</w>
совмест ные</w>
ви дам</w>
мы сли
д венадца
вер нется</w>
нор веж
угро жает</w>
рабо ток</w>
поощ рению</w>
серьез ное</w>
по тря
озна ком
за крепи
шан сов</w>
подразде ление</w>
американ ская</w>
вы ходят</w>
подоз ри
зи ли</w>
7 ,5</w>
до во</w>
вести .ru</w>
секто ров</w>
па кистана</w>
пенсионе ров</w>
то ро
свое временно</w>
обществен ные</w>
совершен о</w>
сло вом</w>
15 9</w>
у став
информа ционные</w>
бед ных</w>
чув стви
четвер того</w>
госпо жа</w>
лекар ств</w>
выпла ту</w>
уточ нили</w>
тя ги
ка нику
охваты вает</w>
независи мого</w>
дели ть</w>
судеб ном</w>
специаль ным</w>
истори ческих</w>
действу ющий</w>
отправи ли</w>
высо те</w>
веду щие</w>
запу ск</w>
свобод ных</w>
вра ж
пи ро
принадлежа т</w>
р с
оста нутся</w>
ва ших</w>
мероприя тии</w>
пара метры</w>
зарпла та</w>
транспарен тности</w>
дво их</w>
10 7</w>
у чения</w>
пода вля
москви чей</w>
внед рение</w>
изобра жения</w>
обязан ность</w>
зна ком</w>
кара оке</w>
успе хи</w>
за купа
тра фи
саудов ская</w>
кон вер
н ью
отде лении</w>
ст ям</w>
гон кон
ка пел
предъя влено</w>
в кой</w>
принадлежа щих</w>
вы мога
музы ка</w>
ез д</w>
сде лку</w>
сооб щению</w>
гру н
медицин ское</w>
н си
жа т</w>
объя с
окру г</w>
за лог</w>
брази ль
француз ский</w>
производи тель</w>
румы ния</w>
потеря ли</w>
зем ля
спи ски</w>
измен ению</w>
гра ф</w>
осе тии</w>
а лле
ме че
d ll</w>
исполни теля</w>
вол ну
терак тов</w>
узна ли</w>
вспом нить</w>
ч ува
за вы
ру ющий</w>
ы ва
и .</w>
кораб лей</w>
ан дер
н рав
израи лем</w>
фон дом</w>
в чераш
с реди
а му
ю ми
ложен а</w>
зам пред</w>
предше ствен
за ставить</w>
ос по
р ным</w>
арави я</w>
шта тах</w>
треть я</w>
зри тели</w>
ль во
сдела н</w>
бес пристра
периоди чески</w>
гра де</w>
таджи кистан</w>
вы ле
прожи вает</w>
кампа ния</w>
росси ян
ко н</w>
предусмотрен ного</w>
п ление</w>
графи я</w>
тяже лой</w>
го но
про сро
тем пов</w>
зи а
име ю</w>
х ер
кар дина
при каз</w>
максима льной</w>
стоя л</w>
подо р
явля лся</w>
созда но</w>
полито лог</w>
сти ли</w>
круп ным</w>
потреб ность</w>
ра ство
с просил</w>
бро не
приступи ть</w>
росте ле
интеллектуаль ной</w>
про сто
а з
реак ция</w>
посвящен ных</w>
состоя вшемся</w>
предпринима тель</w>
профилакти ки</w>
народо населения</w>
ксен оф
правосуди ю</w>
дей ствовали</w>
господ ь</w>
экономи ческому</w>
вы зов</w>
луч шее</w>
0 5.
го ры</w>
устра нить</w>
характеристи ки</w>
тан це
фло ри
рефор ме</w>
ре патри
ка нец</w>
и ри
ся н</w>
при да
конферен цию</w>
покры тие</w>
10 3</w>
обви нил</w>
осу жденных</w>
зай мет</w>
профе ссии</w>
рус ская</w>
ф ур
2 3.
гото вить</w>
ну лась</w>
медици ны</w>
вни з</w>
результа тами</w>
наз вания</w>
последстви ями</w>
молодеж ной</w>
контак те</w>
бы строго</w>
пло хой</w>
тель ский</w>
закон ных</w>
с мир
щи мися</w>
молоды м</w>
доб ави
принци пам</w>
иностран ной</w>
ст яза
сти не</w>
балан са</w>
от дал</w>
зафикси ровано</w>
за мена</w>
методо логи
нен о</w>
ближай ших</w>
екатеринбур г</w>
мину ту</w>
вид ение</w>
лаборато рии</w>
дости жений</w>
британ ской</w>
смер тной</w>
отече ственных</w>
бед ности</w>
нужда ются</w>
повы си
поме щении</w>
охра ня
следо вания</w>
масшта бы</w>
попы тку</w>
семина ров</w>
не правильно</w>
ведомо сти</w>
бла го</w>
на числен
необходи мостью</w>
теку щих</w>
во рачи
ту ют</w>
всемир ная</w>
спор ту</w>
сом нений</w>
оккупа ции</w>
ле сных</w>
запрещен а</w>
опера тор</w>
в зо
не санкциони
победи телем</w>
не справедли
ба рь
обви нений</w>
разработа н</w>
д же</w>
кур се</w>
бра та</w>
пре зиди
противо прав
стра х</w>
боро н
а ри
по гло
откры тый</w>
у платы</w>
доступ ности</w>
ве сен
по кон
наблюда тели</w>
при кры
необходи мое</w>
спо ры</w>
созда нием</w>
побе де</w>
з бир
ь ер</w>
исчез нов
треть им</w>
солидар ности</w>
откры вает</w>
меся це</w>
догово ру</w>
демонстра ции</w>
надлежа щим</w>
расту т</w>
измен я
5 ,5</w>
ве сом</w>
политиче скими</w>
не больших</w>
те ха
вари я</w>
кли матиче
заня ли</w>
колумби я</w>
токи о</w>
нов ского</w>
се рия</w>
жизнен но</w>
ви ка</w>
ру х
ко д</w>
относи ться</w>
пере движения</w>
ке меров
перен о
роско смо
перио дом</w>
льго ты</w>
воен ными</w>
по являются</w>
милли оны</w>
1. 1</w>
полу чены</w>
cn. 4</w>
освобо ждение</w>
куве й
ниче ских</w>
преступ ной</w>
ча й</w>
ответствен ных</w>
обой дется</w>
слу ши
твер ды
ближай шем</w>
объек том</w>
замен у</w>
капел ло</w>
ик т</w>
учени ков</w>
астра ха
со лов
англий ского</w>
мага зины</w>
ol og
исклю чает</w>
надея ться</w>
до моде
но ма
во доро
ста ре
198 2</w>
фер нан
времен ный</w>
вер ы</w>
10 8</w>
view topic
мар т</w>
актив ную</w>
стре мление</w>
актив ные</w>
фа н</w>
авто ром</w>
соц сети</w>
т ны</w>
республи кой</w>
производ ственных</w>
неправитель ственными</w>
послед нюю</w>
са ду</w>
ж ье</w>
пари ж</w>
а гра
бы вшим</w>
к н
устанавли вается</w>
доброво льно</w>
спе т
хва тит</w>
попыта лись</w>
вооружен ного</w>
продолжи л</w>
удоволь ствием</w>
т ским</w>
препара ты</w>
ста рых</w>
подтвер ждение</w>
ры ба
види те</w>
ма сси
шко льного</w>
стреми ться</w>
палестин ских</w>
креди торов</w>
бес прецеден
меди а
управля ющий</w>
обеспе чением</w>
цен зу
русла н</w>
о дин
вл ениях</w>
голосо вать</w>
семина р</w>
возник нов
ниж ней</w>
буль ва
за че
се м</w>
слож ные</w>
м нениями</w>
бе лый</w>
международ но</w>
ребен ку</w>
ко вая</w>
площад ку</w>
за ди</w>
б ени
комплек се</w>
догово рных</w>
анну ли
фир м</w>
наруш ениями</w>
про дела
п с</w>
офор мления</w>
выс ших</w>
опьян ения</w>
норма ми</w>
куз ь
но вин
к р
ключе вым</w>
социаль ное</w>
viewtopic .php</w>
пы тки</w>
на хождения</w>
зарпла т</w>
пода ли</w>
протоко лов</w>
про анализи
о мской</w>
до лей</w>
ка н</w>
сим па
партне ром</w>
я ния</w>
ба р</w>
социаль ная</w>
туро пера
кар ло
упра ж
выпол нены</w>
воспо мина
бен зин</w>
ор ен
геро я</w>
много кварти
до ставлены</w>
от ча
и вуа
м ю
разъя с
ма не
помо г</w>
у пор
добави м</w>
народ ы</w>
возник ла</w>
тех ни
алта пресс</w>
вс кры
демокра тическая</w>
вля ться</w>
заба сто
мя со</w>
ж мите</w>
лондо на</w>
сопер ник</w>
конвен цией</w>
дерев ьев</w>
не просто</w>
по думать</w>
каса ющейся</w>
прия тия</w>
выгод но</w>
жи ри
худож ник</w>
ра со
подозрева емый</w>
комплек сов</w>
ч ников</w>
сельскохозяй ственной</w>
е лиза
торговл ю</w>
майк л</w>
по ли</w>
имен ем</w>
очеред ного</w>
м гу</w>
лет нему</w>
уязви мых</w>
комплек сной</w>
пол та
и ть</w>
ва ете</w>
ли лись</w>
приме ром</w>
мар ка</w>
за им
обзор у</w>
пере ходе</w>
ско ром</w>
англий ский</w>
тек сте</w>
бель ги
ционе р</w>
подпи сы
совершен ные</w>
в контакте</w>
использу емых</w>
ку д
сексуаль ных</w>
р ти
свед ениям</w>
. b
ви чу</w>
бур га</w>
19 60</w>
необходи мого</w>
вклю чен</w>
конку ри
зая вить</w>
воен ное</w>
с бро
на чис
физи ческого</w>
г р
филиа ла</w>
венесуэ лы</w>
ниж нем</w>
референду м</w>
повез ло</w>
поле вой</w>
а ста
россия нин</w>
кана ле</w>
попу ля
д с</w>
дни ка</w>
оккупи рованных</w>
вьет на
www. aif.ru</w>
пар ень</w>
указа нной</w>
коллек тив</w>
международ ную</w>
выступи т</w>
сирий ских</w>
ор г
раз вле
пенси й</w>
отме тки</w>
выво дов</w>
сти ческого</w>
мурман ской</w>
4 3
всеобъемлю щего</w>
рез юми
ак ку
ф з</w>
представлен о</w>
волго градской</w>
прош лый</w>
четвер том</w>
ров у</w>
писа тель</w>
увелич ением</w>
шен ный</w>
церемо ния</w>
использо ваны</w>
к .</w>
за веду
теп ла</w>
у мира
с хо
александ ром</w>
ю г
ль ду</w>
занима лись</w>
само провозгла
би лет</w>
масшта бах</w>
п ье
а лю
первен ства</w>
спор тивные</w>
день гами</w>
кре а
убе дить</w>
на всегда</w>
народ ный</w>
повест ка</w>
проводи мых</w>
стани слав</w>
точ ных</w>
в верх</w>
хоро шим</w>
ма рок</w>
гага рина</w>
ме тся</w>
точ ный</w>
ю вен
р ту
ли ей</w>
верто лета</w>
обще жи
сохра нять</w>
штей н</w>
преступ лениях</w>
одержа л</w>
нала дить</w>
м но</w>
ка б
сла вя
в ная</w>
м кс</w>
при лега
конфлик те</w>
про то
да вайте</w>
особы е</w>
реви зии</w>
совеща ниях</w>
вы р
го не</w>
набере жной</w>
гото вятся</w>
дек са</w>
ти сь</w>
совер шение</w>
предприя тиях</w>
к м.</w>
тив ши
успе хом</w>
ё м</w>
пере рыва</w>
ро кра
ци кло
чи н</w>
раз ры
ш лись</w>
метал лур
отпра вления</w>
ме шает</w>
разви вается</w>
v ate</w>
д ра</w>
яко вле
воз лага
сан ти
ше реме
любы м</w>
рова в</w>
середи ны</w>
с меж
друзь ями</w>
пи ть
выпол нением</w>
бир жи</w>
про вали
вне сли</w>
росбал т</w>
с му
ги ги
на ем
извести й</w>
ство вания</w>
исла мской</w>
сер ти
трени рово
u ary</w>
про хождения</w>
ско ордини
эта пах</w>
рее стра</w>
жела ет</w>
отсут ствуют</w>
рефор ма</w>
совершенство вание</w>
ст ного</w>
стоя щих</w>
фи я</w>
не распространения</w>
план ше
отра жа
болез нь</w>
по хва
наде ются</w>
робер т</w>
er g
преподава телей</w>
худож ников</w>
предположи ть</w>
исследо вании</w>
уг ля</w>
теп ло</w>
кро с
владель цем</w>
бесе де</w>
кри тики</w>
зависи мость</w>
осуществля ются</w>
у рал</w>
дополнитель ное</w>
внеш него</w>
обви нению</w>
верто лет</w>
гаран тирует</w>
слуша ния</w>
не официальных</w>
пере у
16 ,
архитек тур
индоне зия</w>
не ров</w>
интер на
6 ,5</w>
убежи ще</w>
c. 2</w>
ка ют</w>
свобод ное</w>
комна та</w>
от сро
брига ды</w>
гор ь
навы ков</w>
публи чных</w>
об уч
2 20</w>
ве чер
бы стро
г э
ж ка</w>
нау ке</w>
схе ме</w>
бол гар
га м
науч ные</w>
мор скому</w>
вы бран
восто р
карто фе
проис ходило</w>
смотри м</w>
1 14</w>
ста вят</w>
совершен ных</w>
ла ти
близо сти</w>
вы работки</w>
состоя лись</w>
по йдут</w>
раз рыв</w>
финансо во</w>
ар те
ар хе
дли тельного</w>
у раль
му же
сня ли</w>
многи ми</w>
отправля йте</w>
не осторо
григо рий</w>
пом нить</w>
фе ев</w>
ве со
выбо рам</w>
глоба лизации</w>
нару ша
v .</w>
значи тельного</w>
уро ки</w>
охран у</w>
ча со
конкурен тов</w>
присоедини лись</w>
пору чено</w>
верну лась</w>
хе ль
эк замен
преследо вание</w>
вы шед
ле сного</w>
вос питы
дальней шему</w>
им пуль
си рию</w>
выбра ли</w>
сельскохозяй ственных</w>
партнер ских</w>
мла ден
www. s
способ ствуют</w>
про двига
жилищ ного</w>
ти пи
де пре
обеща л</w>
вл я</w>
землетряс ения</w>
защит ников</w>
поправ ками</w>
па тро
голосо вании</w>
дав ности</w>
ва вшие</w>
пор но
пер выми</w>
способ на</w>
реста вра
тюмен ской</w>
сегодняш него</w>
д ку</w>
получи ло</w>
словаки и</w>
ку бке</w>
наблюд ению</w>
даге стана</w>
специаль ная</w>
е ль
лю бая</w>
за о
калифор ния</w>
ф ре
фе дор</w>
по вод</w>
подверга ются</w>
пред ло
ре визоров</w>
тя ми</w>
фи чу</w>
раз ными</w>
правитель ственные</w>
макси ма</w>
ат теста
зна ниями</w>
экономи чески</w>
м ная</w>
по кро
подозре вают</w>
нау ка</w>
екатеринбур га</w>
ре ше
аль ный</w>
корпу с</w>
гвар дии</w>
американ ском</w>
ш кина</w>
ви лась</w>
чита л</w>
целост ности</w>
2, 2</w>
эри тре
ту льской</w>
снима ть</w>
территориаль ной</w>
ссо н</w>
подотчет ности</w>
вкла да</w>
сожа ление</w>
т тере</w>
до ставлен</w>
в ени
да ция</w>
агре га
не которыми</w>
я ние</w>
ку ля
ро вич</w>
бан ки
име ем</w>
ни кара
з ной</w>
поздра вил</w>
ров ский</w>
прекра щение</w>
ми ей</w>
дело вой</w>
ниче ство</w>
уточ няется</w>
сканда ла</w>
жа р
лиде рами</w>
кон фе
боль ший</w>
пропу ск
ассоциа ция</w>
право мер
пу ск</w>
фран су
мину совку</w>
това ра</w>
кра тный</w>
лагер ь</w>
переч ня</w>
н ские</w>
находя щиеся</w>
ди станции</w>
лен ная</w>
персона лу</w>
дальней шие</w>
входя щих</w>
выбо рами</w>
гвине я</w>
отде льным</w>
пре вен
пя тый</w>
оконча тельного</w>
на зывать</w>
стере о
со стяза
повы шать</w>
не жели</w>
ненави сти</w>
хоро шего</w>
разработа ны</w>
сокра щении</w>
бра ка</w>
стави в</w>
мани пу
сти н</w>
торго во</w>
следова тельно</w>
па то
информи ровать</w>
по меня
благо состояния</w>
8 7
та жа</w>
пря мом</w>
ш ени
прилож ений</w>
уско рить</w>
со ставлен
гу д
способо в</w>
африкан ской</w>
кажды е</w>
рос ста
регистра цию</w>
тан за
у ходу</w>
объек тах</w>
порта ла</w>
ка меру
страхо вых</w>
рье з</w>
ш око
региональ ное</w>
автобу сов</w>
отпу ска</w>
воору жение</w>
зе ландии</w>
маршру т</w>
про играл</w>
си льного</w>
обеспечи т</w>
мо ю</w>
пе тров
жен ской</w>
тяже лых</w>
ли зин
ата ке</w>
согла шению</w>
с дви
доро жно</w>
поня тия</w>
награ д</w>
скор ректи
за мы
нен ные</w>
роди телям</w>
и знача
сена тор</w>
цр у</w>
ли ться</w>
превы шать</w>
о позна
журнали стами</w>
сою зе</w>
прока т</w>
регла менти
дви жении</w>
жа не</w>
oun ter</w>
супру ги</w>
расши рении</w>
запре те</w>
запи ска</w>
зем ля</w>
ви з</w>
докумен тами</w>
жа ми</w>
гла зами</w>
2, 4</w>
кузне цов</w>
ма тики</w>
е ме
цен ные</w>
низ кий</w>
тран сфер
одеж ду</w>
хра ма</w>
подпи си</w>
ском па
бе рите</w>
сти ческие</w>
семина ра</w>
ев ского</w>
развед ыва
суверени тета</w>
го е</w>
анато лия</w>
ди спет
сер б
лен ность</w>
аль бер
б я
ра тор
проходи ла</w>
эле мент</w>
шко льных</w>
госпитализи рованы</w>
автомоби лем</w>
бо ли</w>
се ссиях</w>
каби нет</w>
каза нь</w>
промышлен ность</w>
19 67</w>
певи ца</w>
посад ку</w>
мас ла</w>
бра тьев</w>
бю рокра
на нес</w>
про сла
плате жи</w>
ли шение</w>
бер га</w>
поступа ть</w>
ключе вые</w>
по совето
инф ляция</w>
отли чаются</w>
ге й
собы тиях</w>
устанавли вает</w>
ри ка
хи м</w>
добы чу</w>
пере ло
пря мого</w>
уби ты</w>
люби телей</w>
серге ю</w>
публика ций</w>
материа лам</w>
цен ам</w>
кни ге</w>
архитек туры</w>
ри чар
никара гуа</w>
жа м</w>
чи ка
счита ться</w>
обстанов ка</w>
визи том</w>
действу ющей</w>
подтвержда я</w>
юриди ческого</w>
север ный</w>
на хо
вы годы</w>
обнару жения</w>
технологи ям</w>
следо вать</w>
по единок</w>
бе й
барсело на</w>
прожи вают</w>
завер шение</w>
ма й</w>
плани ровалось</w>
задержа нии</w>
куль тура</w>
соба к</w>
род ы</w>
холдин г</w>
структур ных</w>
наш ла</w>
реа ла</w>
обусло влено</w>
бер ку
убий ств</w>
координа цию</w>
ня м</w>
действу я</w>
экологи ческого</w>
поиска х</w>
ста х</w>
рез юме</w>
мес си</w>
ран ены</w>
бло к
рабо чую</w>
жи лой</w>
б ене
устанавли вать</w>
интер нета</w>
ж ениях</w>
вто ри
спас ения</w>
магази не</w>
судь бу</w>
ис править</w>
и ное</w>
ра тор</w>
ло вые</w>
0, 1</w>
ру ющей</w>
прогно зы</w>
соц сетях</w>
инициати вой</w>
жен ным</w>
ствен ности</w>
материа лах</w>
ко сме
холо ди
бах рей
те мой</w>
над пи
стра новых</w>
прода жа</w>
ь и</w>
поки нули</w>
ищ ет</w>
част ном</w>
убы тки</w>
бой цов</w>
офице ров</w>
обяза тельного</w>
вос хи
энерге тической</w>
сер дю
у пла
пу га
програм ми
произо йти</w>
ди о
а с</w>
аль бом</w>
на несен
3 60</w>
продли тся</w>
утвер дить</w>
бу с</w>
му н
т руп
не удоб
вы вез
возме з
попро бовать</w>
номе ром</w>
лю ка
тради ционной</w>
на за
198 4</w>
неправитель ственные</w>
тематиче ских</w>
регули рование</w>
обы чной</w>
предприя тии</w>
самар ской</w>
восто чный</w>
выс шей</w>
достигну тый</w>
аналоги чным</w>
ё т</w>
запро сы</w>
на бора</w>
колле гии</w>
2, 3</w>
та льной</w>
недоволь ство</w>
по лет</w>
занима ть</w>
телевид ения</w>
бри тании</w>
устрой ству</w>
сель ской</w>
фо л
предусматри вают</w>
х их</w>
лете ть</w>
обсу ждении</w>
ст ят</w>
согласи лась</w>
амери ка</w>
п по</w>
те ори
не ва</w>
измен ениями</w>
рав ной</w>
страда ют</w>
транспор ту</w>
кла ссе</w>
роди не</w>
врата рь</w>
из готови
кандида том</w>
напад ений</w>
вок зала</w>
э волю
имуще ством</w>
оговор ки</w>
аналоги чные</w>
неизвест ные</w>
ду ют</w>
1 16</w>
знако мый</w>
банкро тства</w>
наимен о
альбо ма</w>
бое вые</w>
т били
ми ли</w>
возвра щении</w>
теку щий</w>
ен ностью</w>
це ли
напря женности</w>
позволи л</w>
китай ской</w>
большин ством</w>
г ера</w>
науч ный</w>
франсу а</w>
тур цию</w>
га а
чи вать</w>
допол ня
перио ды</w>
опе к</w>
ко к
м нением</w>
долж ное</w>
у о
бесе ды</w>
словаки я</w>
тем пами</w>
ня к</w>
едино гла
за каза</w>
прими рения</w>
улы ба
запад ные</w>
ст ро</w>
ремон ти
транспор тное</w>
волгогра д</w>
ам бу
фак та</w>
ва емости</w>
фарма цев
у шли</w>
специаль ную</w>
род ного</w>
ту ров</w>
тяже лые</w>
комна ты</w>
выра стет</w>
секун ду</w>
го вая</w>
ма рии</w>
основа тель</w>
де вело
ни ном</w>
не понятно</w>
ч ны</w>
удоволь ствие</w>
справедли вой</w>
пе до</w>
аспек тах</w>
след ственных</w>
кип ра</w>
определен ного</w>
5 .</w>
окружа ющую</w>
арсена л</w>
государствен ную</w>
кто ром</w>
собра нии</w>
совмест ное</w>
рассказыва л</w>
намер ение</w>
систе мами</w>
ск лон
я май
политиче ском</w>
уголов ным</w>
жа ние</w>
поня ли</w>
ши т</w>
отказыва ется</w>
рас сла
ше ствие</w>
чу ж
по этап
у люка
разгово ра</w>
призыва ем</w>
ни чь
ве щ
опублико вала</w>
выз вала</w>
за горе
финансо вом</w>
популяр ность</w>
со ра
кана де</w>
муж ем</w>
природ ного</w>
ша т</w>
моло ка</w>
все рьез</w>
ар е</w>
увеличи вается</w>
раз ы</w>
фами лии</w>
ронал ду</w>
и ду
дело вых</w>
опреде лению</w>
ста рые</w>
па виль
бе резо
сторон ники</w>
современ ным</w>
я х
сдела ны</w>
истори ческого</w>
б об
пара метров</w>
гла сит</w>
широ ко
сня л</w>
ниж ний</w>
обстанов ке</w>
стра нно</w>
расстоя нии</w>
пра й
пригово рен</w>
по сты</w>
настаи вает</w>
ново год
зе много</w>
китай ских</w>
домаш ний</w>
выра жение</w>
пере работки</w>
сообще ству</w>
и ном</w>
и бра
звез да</w>
ди в</w>
трени ровки</w>
столич ных</w>
р ений</w>
не вероя
до вести</w>
приме ров</w>
работа ем</w>
ва ющее</w>
цве тов</w>
спец службы</w>
ци ар
ограни ченными</w>
бан ках</w>
разде лу</w>
гра ф
полу острове</w>
заверши л</w>
выну жден
кали б
аль ного</w>
афгани стан</w>
разрабаты вать</w>
ши ли</w>
надлежа щие</w>
н ских</w>
ста рей
цио нер
ба з</w>
возбу ждении</w>
кладби ще</w>
а ро
index .php</w>
измени лась</w>
оста вшихся</w>
одоб рен
с бли
мо им</w>
че л</w>
са до
домоде дово</w>
спорт смен</w>
порта ле</w>
разбира тельство</w>
ц к</w>
хокке и
не состоя
привод ят</w>
сде лка</w>
аван гар
ма хачка
ме ров</w>
во преки</w>
суда н</w>
срав нения</w>
си деть</w>
называ ли</w>
иор да
с можете</w>
гендер ных</w>
ван ными</w>
воз никнуть</w>
при уро
доброволь цев</w>
капита льного</w>
бюдже тной</w>
центра льно
7 7
2 4.
ли ст
пес ню</w>
ксеноф оби
район у</w>
ми н.</w>
против ном</w>
значи тельных</w>
тро и
аресто ваны</w>
сло ев</w>
жесто кого</w>
ог нем</w>
финансо вая</w>
я бло
у са</w>
янва рь</w>
поступи ли</w>
у д
умень шить</w>
низ ма</w>
получи в</w>
ха м</w>
двига телей</w>
поч ве</w>
тради ционные</w>
в вод
вне сен</w>
га р</w>
устано вок</w>
м тс</w>
свя зыва
лит ва</w>
част ях</w>
вла жности</w>
органи зм</w>
при клад
презен тации</w>
носи ли</w>
измени тся</w>
украин цев</w>
во лей
кады ров</w>
альян са</w>
тор педо</w>
пос мо
разме ров</w>
пере клю
жен ная</w>
кав каза</w>
обыгра л</w>
акка ун
2 40</w>
стремя тся</w>
о ва</w>
наз вала</w>
17 ,
сирий ского</w>
пользо вание</w>
учрежд ении</w>
сове ты</w>
ск воз
забы вать</w>
де шь</w>
лизо вать</w>
заяви в</w>
служеб ных</w>
cor r
со болез
разработ кой</w>
вознагра ждения</w>
бизне сом</w>
администра цией</w>
площа док</w>
оты гра
он ф</w>
л лы</w>
ри тей
центра льный</w>
латви я</w>
площад ка</w>
м ра
севасто поля</w>
не исправ
образ а</w>
схе ма</w>
т т
надлежа щей</w>
преступ ностью</w>
ресур с</w>
против ника</w>
гото вят</w>
необходи м</w>
1, 9</w>
найден ы</w>
ба зе
указа нием</w>
влен ного</w>
технологи я</w>
меди ки</w>
находя сь</w>
лов ский</w>
ли т</w>
снаб жение</w>
со т</w>
откры той</w>
написа ть</w>
форвар да</w>
зер ка
стои ть</w>
ти ко</w>
коло сса
саха лин
за пустить</w>
след ственные</w>
болез ней</w>
запи ске</w>
ир ландия</w>
ля тся</w>
от прав
тран сли
ка бе
привер женности</w>
при це
ар мию</w>
культур ные</w>
сопроти вление</w>
сен тябрь</w>
возмож ны</w>
отра жение</w>
юри ст</w>
ван ную</w>
соблюд ении</w>
табли цы</w>
кну л</w>
отмеча лось</w>
се ссион
ско пи
кирги зии</w>
ф р</w>
министер ств</w>
ар т</w>
написа но</w>
совершенство ванию</w>
ви дами</w>
го скомпа
свобо да</w>
ио си
стимули рования</w>
поис ки</w>
жи телями</w>
жен ских</w>
бо го
об щение</w>
ере ван</w>
су ть</w>
ф ф</w>
н тв</w>
следо вало</w>
специали стами</w>
ли сты</w>
сове тов</w>
дни ми</w>
дея телей</w>
пенсион ных</w>
производи тельности</w>
джей мс</w>
аль ных</w>
цве ты</w>
израи ле</w>
ре пети
докумен там</w>
стар ших</w>
ви дах</w>
упа ли</w>
бо гда
исполни телей</w>
указа нного</w>
сом нитель
барре лей</w>
интере са</w>
лли н</w>
статисти ка</w>
продолжа л</w>
един ственная</w>
е пи
га лина</w>
установлен ного</w>
о ставили</w>
коэффициен т</w>
жела ющие</w>
выпуск ников</w>
француз ской</w>
потребо вали</w>
клет ки</w>
2. 2</w>
але ппо</w>
р от
работа ющие</w>
независи мой</w>
равно прави
выста во
f .
венесуэ ла</w>
перене сти</w>
дизай н</w>
ле вые</w>
ле вая</w>
че чен
бе ло</w>
инвести ционной</w>
ци стер
жи вых</w>
у держа
по шла</w>
получа л</w>
пере крест
понима ем</w>
содержа ть</w>
2, 7</w>
роди телями</w>
свое образ
гово ры</w>
способ ных</w>
х ран
неот лож
характери зо
не ту</w>
дово лен</w>
0, 2</w>
зву чит</w>
пала те</w>
ло я
фран ци
немец кого</w>
ше б
ба на
тен циар
стар тует</w>
си лах</w>
за бай
измен ением</w>
боль ше
а парта
содержа т</w>
килограм мов</w>
федераль ная</w>
отече ственного</w>
судь бы</w>
ин фици
продемонстри ровать</w>
у са
ч о</w>
ше лся</w>
турни рной</w>
ры ми</w>
бу ря
предпринима теля</w>
сило вых</w>
формиро вании</w>
о веч
ин гу
сим пто
м ф
в вели</w>
рестора н</w>
увелич ении</w>
объя вить</w>
подтвержда ют</w>
ф бр</w>
ку с</w>
язы ком</w>
юри стов</w>
ко опера
кубан ь</w>
введен ы</w>
опера циям</w>
ис ка</w>
t rem
подвер гну
строго го</w>
вы ве
наме ре
труд ностей</w>
жест ко</w>
ционе ры</w>
корпора ция</w>
пожела ет</w>
бы вшая</w>
постро ен</w>
ж дем</w>
проек тами</w>
4 4
автомоби льных</w>
в р</w>
свиде тельства</w>
о пор
сег менте</w>
электро нные</w>
под лежит</w>
фир ма</w>
изба виться</w>
препят ствия</w>
иско па
точ ные</w>
контак т</w>
ру кой</w>
в след</w>
реак цию</w>
направля ть</w>
э мира
четвер ть</w>
раст ений</w>
переда ли</w>
де гра
иде а
не что</w>
юриди ческие</w>
ст .
проводи л</w>
проте ст</w>
потребу ет</w>
ба гда
мя н</w>
обвиня ется</w>
стра ниц</w>
развива ющимися</w>
н .
стоя ли</w>
значи тельную</w>
пе рии</w>
ж ут</w>
аль ные</w>
из лага
обнару жен</w>
пото ков</w>
аспек там</w>
трибу на
усили ями</w>
вед я</w>
лич ным</w>
нп ф</w>
мор ские</w>
штра фов</w>
норма тивных</w>
про стых</w>
мурман ска</w>
ключе вой</w>
заме тили</w>
сда чи</w>
наруши телей</w>
находи лось</w>
мол до
хули ган
хра м</w>
аналоги чный</w>
направи ли</w>
клиен ты</w>
разверты вания</w>
олимпий ского</w>
ь ева</w>
ля т</w>
взи ма
причи нах</w>
ъ ю
р ского</w>
отче те</w>
спраши вает</w>
район ного</w>
смотри те</w>
партнер ство</w>
сни м
об о</w>
обсужда ли</w>
созна ние</w>
ро с</w>
сса жи
ва ша</w>
материа лами</w>
мо ле
же лу
то вые</w>
уча ству
оцени вают</w>
пси холо
пригла шение</w>
s r.
жела я</w>
рели зе</w>
от правил</w>
един ственной</w>
чи м</w>
ран него</w>
ассоциа ций</w>
покол ений</w>
рф пл</w>
транспор том</w>
дни ков</w>
ми тро
ни куда</w>
б р
собра л</w>
внутрен ний</w>
выступа ли</w>
наро дам</w>
роспотреб надзора</w>
эпо хи</w>
проез да</w>
заклю чить</w>
ч ье</w>
со пря
усугу б
а бор
рас критико
силь ным</w>
спо р</w>
из лиш
вод ство</w>
нату раль
остров ных</w>
шереме ть
ба нд
посе тили</w>
кад ры</w>
разгово ры</w>
ва ше</w>
приобре тен
да вали</w>
спор тивного</w>
име ющим</w>
позволи ла</w>
й дя</w>
институ ты</w>
розы гры
ви чем</w>
изда нию</w>
предвыбор ной</w>
ка д</w>
жа ней
побереж ье</w>
а бу</w>
чи х</w>
8 6
тор ги</w>
дж она</w>
оз ера</w>
рекомендо вать</w>
отче тный</w>
араб ская</w>
европей ская</w>
му ще
1 17</w>
с дать</w>
религиоз ной</w>
недоста тки</w>
приобре л</w>
ауди о
леони да</w>
поло сы</w>
направл ениях</w>
анто ни
0 000</w>
ка меру</w>
пило т</w>
олимпий ский</w>
без от
подлежа т</w>
за блу
претенден тов</w>
телевид ение</w>
говори ла</w>
выбо ре</w>
правозащит ников</w>
опу сты
бе зо
бо ну
стан цию</w>
нов городе</w>
выпла те</w>
посла н
вынес ения</w>
очевид цев</w>
c. 5</w>
тре тья
экспер тами</w>
предпочита ют</w>
опусты ни
ваго нов</w>
электро нного</w>
инстру ментом</w>
концеп ция</w>
столкну лся</w>
инфра структура</w>
нефтя ной</w>
вши мися</w>
ди е
3 d</w>
съем ки</w>
но вания</w>
поблагода рил</w>
навы ки</w>
домаш него</w>
вен ти
си луа
республи к</w>
воз ник</w>
соору жений</w>
л э
органи зма</w>
b .
прод лении</w>
отче тов</w>
ш от
безна казан
д рк</w>
осве щения</w>
поч ты</w>
прошед шие</w>
валю т</w>
мастер а</w>
ourn al</w>
отка зе</w>
напад ении</w>
ра та</w>
тер мо
от ры
д кой</w>
ду ман
дю й
ко й
2, 6</w>
об щен
воспита ния</w>
алжи р</w>
инвалид ности</w>
услови ем</w>
профсою зов</w>
банков ского</w>
пере имено
поддержа ние</w>
те л.</w>
под программы</w>
продолжа ли</w>
пассажи ры</w>
ти роваться</w>
рас ка
ня тся</w>
спец на
ию нь</w>
мас ло</w>
не сомненно</w>
эвакуа ции</w>
праздни ки</w>
лей тен
доступ е</w>
гре б
москов ская</w>
вы се
знако мых</w>
тамож енных</w>
от части</w>
целя ми</w>
любо му</w>
эдуар д</w>
ми ль</w>
экра не</w>
дума ют</w>
обнаружи л</w>
связ ям</w>
откры ты</w>
цен ко</w>
избра ния</w>
а к</w>
сохран ении</w>
при влек
ци та
слож ный</w>
e .com</w>
обраща ет</w>
граждан ское</w>
пры ж
город ском</w>
гор до
под ъем
нен ного</w>
дар фу
мошенниче ство</w>
ак та</w>
изуч ению</w>
присут ствии</w>
футболь ных</w>
фла г</w>
израиль ских</w>
межправитель ственных</w>
серь е
рен табе
corr .1</w>
зна ние</w>
золо той</w>
при зем
плани рование</w>
казах стан
фа би
молда вии</w>
а по
ве б
установ ка</w>
мест но</w>
ко ма
ис ки</w>
1 13</w>
г рен
приорите ты</w>
предпринима тели</w>
подар ки</w>
за работал</w>
подъ е
живу щих</w>
трене ров</w>
ри ску
расче тов</w>
поедин ке</w>
пра вой</w>
выте ка
инвести ционного</w>
нуж д</w>
коман ду
н обе
пода ла</w>
со ко
полу тора</w>
значи тельная</w>
мигран ты</w>
д жен
тор ской</w>
по нома
однозна чно</w>
кандида ты</w>
в водить</w>
с горе
аген тов</w>
направлен ной</w>
зи ей</w>
цен ность</w>
гру за</w>
волгогра де</w>
ди ну</w>
ю вели
основ ную</w>
экс клюзи
1 22</w>
каче ством</w>
ди сло
побереж ья</w>
ко вое</w>
ту зиа
пога шения</w>
сбо ры</w>
структу рой</w>
привет ству
х тен
терак т</w>
извест ной</w>
гра фа</w>
переме щения</w>
относя щихся</w>
д непро
едино рос
тро их</w>
3 .1</w>
дела ем</w>
си ю</w>
му д
гр н</w>
ни чем</w>
кана лов</w>
ска жу</w>
посе ления</w>
опублико ваны</w>
судо ход
бо и</w>
квалифици рованных</w>
сбор ных</w>
1. 2</w>
ст ный</w>
б от
ционе ров</w>
ро га
напада ющего</w>
ство вание</w>
нор ма</w>
лич ную</w>
палестин ской</w>
дра го
кон ь
катего рия</w>
выру чка</w>
лич ном</w>
пени тенциар
ро мана</w>
прав ду</w>
исклю чение</w>
мел ких</w>
валю те</w>
месторо ждения</w>
ж ский</w>
краснодар ского</w>
ко ля
мо ем</w>
целя м</w>
спектак ля</w>
ислам ская</w>
испыты вают</w>
ту берку
аналоги чных</w>
вооружен ными</w>
сти на</w>
нарко тики</w>
факульта тивного</w>
е жене
специаль ное</w>
ин три
вклю ченных</w>
предполага ют</w>
си льных</w>
ошиб ку</w>
созы ва</w>
ки ше
инфек ции</w>
столич ном</w>
верх ней</w>
эк стре
ю лии</w>
ха н</w>
от дох
плани ру
ро сы</w>
принципиаль но</w>
первонача льно</w>
тбили си</w>
нару шает</w>
библиоте ки</w>
со друже
13 5</w>
маши ност
высо кими</w>
вы явля
кри па
использо вались</w>
профессиональ ные</w>
кори до
шо к</w>
циф ра</w>
се ль</w>
пя того</w>
рубе ж</w>
минист ры</w>
аре стом</w>
з ла</w>
пригла сил</w>
ве тери
присут ствовали</w>
юби ле
на след
концеп цию</w>
ня ли</w>
чув ствует</w>
зака зов</w>
госпитализи рован</w>
ш ти
правитель ственной</w>
прави лом</w>
поблагода рить</w>
алтай ского</w>
к ви
сформи ровать</w>
демонстри рует</w>
следова телей</w>
гря ду
высказа лся</w>
ощу ти
са ра
обсужда ется</w>
ю мо
вл ениям</w>
полез ных</w>
ме бе
0, 3</w>
име ло</w>
кита ем</w>
министер ством</w>
нако п
пе ль
лич ное</w>
реги онам</w>
198 1</w>
осо бую</w>
м юн
заинтересован ные</w>
тек сты</w>
возмож ен</w>
вы би
ал ма
ез дить</w>
служа т</w>
испыты вает</w>
дея ния</w>
необходи мыми</w>
низ м</w>
недо во
подоб ный</w>
ф рс</w>
ха нов</w>
утвер жден</w>
роди лась</w>
раз гла
оправ ды
из держки</w>
значи тельным</w>
лич ными</w>
моти вам</w>
зе н</w>
голо су
поме ша
фана тов</w>
судь бе</w>
кандида туры</w>
информи рованности</w>
15 5</w>
рассматри вают</w>
предыду щем</w>
оши бка</w>
пациен та</w>
заби ть</w>
но жом</w>
класси фикации</w>
и ги
ша ться</w>
у строить</w>
либе раль
луч шую</w>
ре ке</w>
доль ше</w>
дп с</w>
л тон</w>
ба лета</w>
вы вода</w>
нов город</w>
де пор
ве се</w>
лагер е</w>
ак тер
вы чис
эсто ния</w>
организо вана</w>
незакон ном</w>
про бу
дискримина цией</w>
влад ения</w>
ру б</w>
б уда
ни за
страш но</w>
связа нными</w>
банкро т
бо ла</w>
чита телей</w>
регуляр ных</w>
разгово ре</w>
ста ном</w>
ра с</w>
ко валь
от работа
призы вы</w>
налого вые</w>
проводи мой</w>
отрас лей</w>
поле вых</w>
федераль ным</w>
р ная</w>
ню дь</w>
стра ницах</w>
указа ны</w>
ха ми</w>
ви зы</w>
росто ва</w>
ле те</w>
дека брь</w>
гото во</w>
тыся чу</w>
маршру ту</w>
зим баб
ка ции</w>
кру гов</w>
смарт фонов</w>
кувей та</w>
под креп
исчер па
чика го</w>
по леты</w>
при зывают</w>
хоро шую</w>
жела нию</w>
грамо тности</w>
сериа ла</w>
пожа ре</w>
зер на</w>
француз ском</w>
жест кой</w>
не медлен
сут ствие</w>
попы ток</w>
кт ы</w>
показа телям</w>
ми сси
юно ше
спор тивный</w>
кри ми
губерна тором</w>
обществен ностью</w>
су дей
подоб ной</w>
деся тка</w>
стек ла</w>
пре фек
гост ях</w>
подроб ную</w>
дости гает</w>
до казыва
стандар та</w>
обвиня емый</w>
организо вал</w>
ви рус
с пря
компонен ты</w>
у на</w>
здравоох ранение</w>
тех нике</w>
зе ландия</w>
. 3</w>
ен ную</w>
палестин цев</w>
подчерки вается</w>
офи се</w>
о дних</w>
бан кам</w>
смо тр</w>
эле мен
рас чет</w>
высказы вания</w>
мби я</w>
т. д</w>
кре по
18 ,
досро чно</w>
м ис
серье зная</w>
убе ждений</w>
при сла
сбо ров</w>
разме ры</w>
столич ной</w>
тюмен и</w>
1 18</w>
здоров ьем</w>
дипломатиче ских</w>
лицензи ю</w>
важ нее</w>
аль ной</w>
сай ты</w>
бассей н</w>
близ ко</w>
истори ческой</w>
ва ло
стра ни
ликвиди ровать</w>
зна ков</w>
ти пы</w>
паралле льно</w>
ан сам
комна те</w>
э ро</w>
за хар
ш ков</w>
мен е</w>
ска м</w>
5 6
пол ная</w>
настро ение</w>
называ емый</w>
испыта ние</w>
зо нах</w>
вле чет</w>
об зо
19 ,
бюдже тного</w>
ру ющего</w>
ли ф
предлага ем</w>
немец кий</w>
ис чис
памя тников</w>
с э</w>
сосе дей</w>
ниче ства</w>
ри ях</w>
жда ться</w>
аресто вали</w>
изуча ть</w>
умень шение</w>
уведо мление</w>
собы тием</w>
выде ление</w>
облег чения</w>
при несли</w>
журна ле</w>
ев ский</w>
ак кура
украин ским</w>
йор ка</w>
резер вов</w>
рассчиты вают</w>
вме ши
ю жно</w>
зимбаб ве</w>
гер ман
пропор циональ
не чего</w>
при нести</w>
ш ками</w>
ингу ше
поло су</w>
разме стить</w>
запи сы
констан тина</w>
чи н
хва та
малай зии</w>
ра ста
ше стер
ся га
предлага емых</w>
подписа но</w>
законода тельной</w>
бене фи
ве рен</w>
аль фа</w>
семей ных</w>
за слуша
л кин</w>
ку бин
встрети тся</w>
за вед
ви лось</w>
ве ров</w>
пла тят</w>
са дов</w>
сталки вается</w>
1 23</w>
кс ения</w>
f eb
ро сте</w>
бак у</w>
жи тельница</w>
сме ша
проведен ной</w>
еди ницы</w>
s. net</w>
мо да
в м
приступи ли</w>
лли на</w>
вне дорож
в ских</w>
кав каз
ф мс</w>
пла нете</w>
бы вают</w>
тра тить</w>
з ре
предвари тельно</w>
т но
то вого</w>
род ные</w>
ар к
железно дорожного</w>
консульта нтов</w>
стави ло</w>
тео рии</w>
жи ла</w>
нен у
возобно вить</w>
стандар т</w>
совет ника</w>
за держки</w>
демокра тических</w>
при зе
полуго дии</w>
тенден ций</w>
науч ного</w>
десяти летие</w>
отправи лись</w>
выру чки</w>
объеди нить</w>
секто ром</w>
акцен т</w>
метео ро
ко выми</w>
мор ском</w>
тури сты</w>
хло п
пере ры
совет ские</w>
рассмотре н</w>
переда вать</w>
бежен цам</w>
ха я</w>
двига тель</w>
ат ел
экипа ж</w>
по казывать</w>
влади миро
мя чей</w>
алкого ль</w>
ги ми</w>
обра щений</w>
хри сто
вы шло</w>
потра тить</w>
жен ского</w>
спортсмен а</w>
доба вили</w>
ни ло</w>
не терпимости</w>
рын ку</w>
восто чного</w>
ано нси
би ться</w>
льго т</w>
опла те</w>
на правила</w>
евро зоны</w>
гор ба
аи ф
шай бу</w>
обы чные</w>
а т</w>
в ступление</w>
197 9</w>
выполня ют</w>
куве йт</w>
с прав
куль туру</w>
ш ува
доро го</w>
потерпе вших</w>
из ме
ко рее</w>
у даль
пересмо тр</w>
наро дом</w>
у спокои
тель ствам</w>
са ды</w>
избе гать</w>
рабочи м</w>
ба ри
поставлен ных</w>
нарко тических</w>
миниму ма</w>
ниж него</w>
сх ему</w>
служ бой</w>
ива нова</w>
коммуна льных</w>
сом нение</w>
тюрь му</w>
предста влению</w>
не к</w>
эмо ции</w>
герцего вины</w>
европей ским</w>
муль т
систе мах</w>
с сен
от нюдь</w>
ранен ых</w>
бер и</w>
чи слом</w>
вступи ть</w>
доби лись</w>
даль него</w>
лебеде в</w>
к л
н ков</w>
5 7
выде ления</w>
доба вля
клима т</w>
охра на</w>
фа мили
милли он
призна ков</w>
руковод стве</w>
вз ло
техниче ская</w>
дик та
искрен не</w>
спо ра</w>
б ору
с си</w>
биатло ни
дей ствовал</w>
россия нина</w>
устанавли ваются</w>
стимули ровать</w>
существу ющей</w>
cd ata</w>
пода вать</w>
от се
воен ном</w>
6 .</w>
сле ды</w>
2, 8</w>
бан ды</w>
принима ться</w>
мину тах</w>
в хода</w>
потенциаль но</w>
меда лей</w>
ка но
хозяй стве</w>
197 8</w>
раун де</w>
се ло</w>
пусти т</w>
диску ссий</w>
клас сы</w>
абха зии</w>
альтерна тивных</w>
прошед ших</w>
лле й
чи лся</w>
называ емых</w>
рубри ке</w>
правя щей</w>
радиостан ции</w>
е л</w>
от чис
наблюд ение</w>
сохран ению</w>
реши т</w>
разы ски
ин вен
ъю нк
ро ка</w>
т ское</w>
приро де</w>
рас цени
отче та</w>
19 0</w>
гна ть</w>
аре сте</w>
долгосро чных</w>
реаль ный</w>
за пом
оказыва ются</w>
концентра ции</w>
транзи та</w>
недав него</w>
иги л</w>
д зю
к м
верто летов</w>
ло те
мас су</w>
довер я
клиен тами</w>
т скую</w>
при дает</w>
с держа
но гу</w>
сти ческий</w>
лиц .</w>
расши рять</w>
бере га</w>
с ход
страда ет</w>
мс п</w>
аппара тов</w>
бан ками</w>
оска р</w>
8 8
процеду ре</w>
бизне су</w>
ст ю
сило виков</w>
но мере</w>
мин тран
теле фонов</w>
поверх ность</w>
бар ба
слов ения</w>
при мир
разработа ли</w>
сче тах</w>
объедин ений</w>
оп с</w>
се стра</w>
би т</w>
десятиле тий</w>
р ской</w>
функ цию</w>
высоко технологи
ко п
пере довой</w>
настоя щие</w>
поступа ют</w>
при год
продолжи тельности</w>
ниге рия</w>
финанси рованием</w>
ак ционер
фика цию</w>
бе здо
ата ку</w>
тихо го</w>
внутрен нем</w>
приеха ть</w>
месторо ждений</w>
чув ствовать</w>
работ никам</w>
ври о</w>
хоро ших</w>
ки ну</w>
це лого</w>
осуществля ют</w>
шереметь ево</w>
точ ке</w>
ня ющий</w>
острова х</w>
избира тельного</w>
зна ки</w>
д няя</w>
си лам</w>
от ложить</w>
использо вал</w>
us in
слож ная</w>
росто ве</w>
называ емой</w>
серьез ного</w>
трав ми
суме ли</w>
заканчи вается</w>
координа ция</w>
призна на</w>
на ры
откро ется</w>
жен ностью</w>
бле стя
реша ется</w>
опровер г</w>
отчет ность</w>
лен области</w>
бра ли</w>
вмеша тельство</w>
кэ меро
офи са</w>
отрас ль</w>
ле то</w>
ме рой</w>
производи т</w>
ди нов</w>
филип пины</w>
к са</w>
ар ша
не бе</w>
эффектив ному</w>
прош лым</w>
запре щает</w>
футбо ле</w>
предста влении</w>
беспла тный</w>
дума ет</w>
дж у
крае вого</w>
опублико ванном</w>
железно дорожных</w>
ст ря
15 4</w>
произ ведений</w>
бер лине</w>
е ду</w>
перво му</w>
расстоя ние</w>
ву лка
си мо
ря ют</w>
на гля
высо ты</w>
стра н
стар та</w>
с пин
хокке ю</w>
пособи е</w>
коллек цию</w>
оставля ет</w>
намер ено</w>
од к</w>
вы ставля
15 .
дар ья</w>
благодар ность</w>
лу рги
ству ющий</w>
обществен ность</w>
подгото вил</w>
безот лага
жест кие</w>
нако пления</w>
запрещен ных</w>
форма льно</w>
выя вить</w>
кноп ку</w>
вод ства</w>
сократи лся</w>
столкнов ений</w>
рекла му</w>
хозя ева</w>
кре с
злоупотреб ления</w>
увер ена</w>
искорен ения</w>
д рай
цен ой</w>
прак тической</w>
успеш ной</w>
эксперти зу</w>
го скор
настав ник</w>
президен те</w>
немец кой</w>
зи л</w>
само определение</w>
а так</w>
бак тери
депута том</w>
15 00</w>
город ская</w>
артилле рий
г на</w>
расче ты</w>
0, 7</w>
рас строй
2 10</w>
стра ция</w>
предусмотрен а</w>
прак тические</w>
комисса р</w>
н рс</w>
оборо том</w>
расска зывают</w>
целесообраз но</w>
э ля</w>
все общего</w>
е лены</w>
близ кие</w>
а стана</w>
5 9
переход ного</w>
хи щении</w>
приме ра</w>
вспомога тельного</w>
положи тельные</w>
з рели
ч нее</w>
бизне се</w>
щен ным</w>
ниче ские</w>
в ские</w>
198 3</w>
заболе ваниями</w>
концер та</w>
ти ровал</w>
о жо
незакон ное</w>
ора тор</w>
парков ки</w>
пожа рных</w>
виру с</w>
граждан ские</w>
базо вых</w>
ра фа
бизнесмен ов</w>
оборудо ванием</w>
точ ной</w>
договорен ность</w>
род ным</w>
ра до</w>
при способ
вку с</w>
пропа вших</w>
ч ениями</w>
поступи ла</w>
рав ни
м 2</w>
уда ления</w>
секретариа ту</w>
мину вшую</w>
подготовлен ный</w>
догово рам</w>
возгора ния</w>
ха ла
объясни ли</w>
красно дара</w>
под ы
сси ональ
ве сны</w>
нефтя ных</w>
пыта ясь</w>
у влека
маль чиков</w>
распо ложи
пробле матики</w>
им перии</w>
повре ждений</w>
примеча тельно</w>
сократи лось</w>
вы страи
ходя тся</w>
ня л</w>
мо нии</w>
ше ль</w>
сельхо зна
готови ться</w>
собствен ному</w>
сложи лась</w>
противостоя ния</w>
соста вят</w>
особы м</w>
мар тин</w>
sw agen</w>
2 .ru</w>
досто примеча
б рай
мошенниче ства</w>
тра кто
обжало вать</w>
коллек тива</w>
произ вести</w>
три те</w>
пе тров</w>
ближ него</w>
оккупи рованной</w>
во лю</w>
ви ден
спа ль
должност ях</w>
перен а
trem ul
возрос ло</w>
атле тико</w>
образо ванием</w>
зи но</w>
круп но
мест ное</w>
дере вен
блю да</w>
2 30</w>
эпиде ми
послед няя</w>
вещ ь</w>
техниче скому</w>
вреза лся</w>
ли хтен
подписа ние</w>
приви леги
обще му</w>
малень ких</w>
раз мыш
пе чен
президен тской</w>
сдела нные</w>
работода телей</w>
ориен тации</w>
награ ду</w>
сочета нии</w>
гу ля
останов ке</w>
уилья мс</w>
бе лые</w>
ассо рти
мин пром
ухуд ши
поезд ку</w>
стреми тельно</w>
герма нию</w>
у вле
уголов ные</w>
ж ку</w>
1 28</w>
це поч
оста льное</w>
смо тра</w>
т ностью</w>
двухгоди чного</w>
с ква
гар мони
штраф ной</w>
арти стов</w>
счаст ья</w>
на зар
сы лка</w>
да дут</w>
мо вич</w>
ру н
юще мся</w>
лы ж
выра жа
пи на</w>
твер до</w>
г ли
крупней шим</w>
профессиональ но</w>
й с</w>
дни ки</w>
попе чи
повто ри
вол ны</w>
и .
меж учрежден
специаль ности</w>
китай ского</w>
осно вана</w>
й ные</w>
причи ну</w>
выбро сы</w>
алкого льного</w>
государствен ная</w>
прош ло
завер шена</w>
шо ва</w>
вдох но
отнош ениям</w>
тер мин</w>
tremul ou
организо вали</w>
жи вой</w>
группи ровок</w>
представля ющих</w>
настро ения</w>
ак се
вни чью</w>
14 .
реаль ность</w>
испол нять</w>
второ му</w>
ри ка</w>
ра р
заби ли</w>
администра тивный</w>
предоста влению</w>
моби льного</w>
случи вшегося</w>
полков ника</w>
администра цию</w>
указа ли</w>
ру бле
tremulou s.net</w>
посе лений</w>
фотографи й</w>
си д
0 9.
бедстви я</w>
прогре ме
бо ятся</w>
ум ение</w>
превос ход
комменти рует</w>
бо ю</w>
серьез ными</w>
сарато вской</w>
современ ном</w>
не бес
просве щения</w>
роли к</w>
ков ь</w>
лай нера</w>
посвящен ные</w>
ко ди
иностран ными</w>
мо тор
ниче ского</w>
умень шению</w>
а ва
достигну то</w>
ма ну
из мери
кро во
психиа три
пи щи</w>
важ ная</w>
насили и</w>
запад ном</w>
принима емых</w>
разработа на</w>
заво дов</w>
украин ская</w>
лла ри</w>
те ст</w>
чу ка</w>
предполага лось</w>
тель ствами</w>
симво ли
перечислен ных</w>
бара ка</w>
ани е</w>
и так</w>
на фто
ме дов</w>
разме ром</w>
ново ро
православ ной</w>
измени лось</w>
спи кера</w>
сообра жений</w>
хос е</w>
регуля тора</w>
наращи вания</w>
геор ги
ба лли
диплома тов</w>
пыта лась</w>
влади мир
оби та
коммента рий</w>
ф лаго
т ения</w>
статисти ческие</w>
репродук тивного</w>
за ря
бухгал тер
сен са
сла д
расследо вании</w>
пла ном</w>
рас а</w>
встреча х</w>
верси й</w>
за держ
изо ли
л ками</w>
и а</w>
ul l</w>
брен да</w>
за поро
выда вать</w>
уста ре
залож ников</w>
фор мой</w>
получи лся</w>
одоб рила</w>
свое времен
стандар тами</w>
путеше ствен
освобо ждении</w>
197 3</w>
важ на</w>
ува жать</w>
метрополи тена</w>
a .com</w>
роб и</w>
я о</w>
свет ла
про анализировать</w>
ба ева</w>
па р</w>
содержа нием</w>
декла ри
при носит</w>
епи ско
ли ми
сби л</w>
фици ровать</w>
таилан да</w>
вери т</w>
пору чению</w>
учеб ной</w>
б люд
предупре дил</w>
с экономить</w>
изо ляции</w>
реда кти
писа теля</w>
за ле
мощ ный</w>
компа к
кон ъюнк
вер бо
не жела
поме щениях</w>
дорого стоя
организо ваны</w>
им му
am il
дета лей</w>
пре сса</w>
спа д</w>
одно имен
газо провода</w>
ко пе
закры т</w>
ста рой</w>
предпринима тельской</w>
малай зия</w>
ра на</w>
мат чем</w>
белору ссия</w>
с обе
по воро
кана лы</w>
заявля ли</w>
дохо дах</w>
чи стого</w>
ликвида цию</w>
подчерки вая</w>
требо вали</w>
строй ка</w>
пол у</w>
присут ствовать</w>
еме лья
под ве
копи и</w>
ров ского</w>
со ж
объединен ная</w>
патру ли
бенефи циа
миро вые</w>
покаж ет</w>
напи тков</w>
постоян ное</w>
ма ля
сум мар
арка дий</w>
у ха
1 19</w>
на ц
влен ная</w>
об меня
e р</w>
м р
посвящен ной</w>
малень кий</w>
извест на</w>
облада тель</w>
секто раль
val ign</w>
брен д</w>
назна чено</w>
одоб рения</w>
призна кам</w>
спор том</w>
руководи телями</w>
м са</w>
созда ется</w>
дви жением</w>
св н</w>
собствен ным</w>
хе й
форми ровать</w>
да чи</w>
el op
ми л</w>
ката р</w>
предлага ли</w>
валю тного</w>
зим них</w>
фа со</w>
популяр ности</w>
не действи
быст рый</w>
скон центри
амнисти и</w>
ле су</w>
предназна чены</w>
приня тием</w>
ди лись</w>
ре шен</w>
раст я
язы ки</w>
зи т</w>
вет eр</w>
млад ший</w>
ва емым</w>
финанси ру
дене жной</w>
3, 6</w>
и ро
футболь ный</w>
ь о</w>
эле ментом</w>
устойчи вое</w>
а з</w>
20 ,
пере мен</w>
2. 0</w>
но с
предыду щей</w>
с писа
13 2</w>
выгля дят</w>
ель ци
6 6
бира ть</w>
консоли ди
выя влено</w>
партне рам</w>
предоставля ют</w>
британ ских</w>
анали тиков</w>
преодол ения</w>
кор енного</w>
ход ь
на нести</w>
мин энерго</w>
прогре ссе</w>
ежегод ной</w>
слыша л</w>
собствен ное</w>
н це
гру бы
сала ва
разме щены</w>
по вер
ри т
со й</w>
гон ду
выступ лении</w>
област ном</w>
стрелко вого</w>
сило вики</w>
ма темати
из держек</w>
не ве
туни с</w>
предлага емого</w>
жаней ро</w>
зем лей</w>
полу ченной</w>
3, 2</w>
ка зе</w>
запре тили</w>
д т</w>
неизбе жно</w>
увер енности</w>
просмо тра</w>
оо о
об мени
красо ты</w>
мож ешь</w>
докумен том</w>
м п
воен ная</w>
справедли вость</w>
руковод ству
фаль ши
запро сов</w>
хи ллари</w>
самми т</w>
зам би
з вер
тро ллей
стара ются</w>
на бо
ложен ные</w>
установ ку</w>
ми ная</w>
от клады
да вид</w>
увеличи тся</w>
уступи л</w>
изда ний</w>
ст ского</w>
ежегод ный</w>
нобе лев
производ ством</w>
четвер ти</w>
заха рова</w>
у пор</w>
мощ ностей</w>
19 45</w>
се ры</w>
вознагра ждение</w>
изгото вления</w>
генера ла</w>
рабо чее</w>
мо гу
менедже ров</w>
га ла
выде лены</w>
ку т</w>
вол на</w>
анг ли
разногла сия</w>
исполни тель</w>
противостоя ть</w>
соору жения</w>
уго л</w>
хокке я</w>
процен тных</w>
бур кина</w>
фе ль
исла мского</w>
у шла</w>
семина ры</w>
го ва</w>
ло вич</w>
чу де
испо р
задержа ла</w>
возгла вить</w>
управля ющей</w>
те сном</w>
осно ванием</w>
бере гов</w>
состоя вшихся</w>
из лу
связа нного</w>
раун д</w>
ст р.</w>
оса го</w>
. 48</w>
воору жениями</w>
предполага емых</w>
руан де</w>
с ник</w>
авари я</w>
возвра щается</w>
т ника</w>
пострада вшие</w>
бы вшему</w>
уч ений</w>
под пись</w>
прибы тия</w>
собра ли</w>
ссыла ется</w>
n iss
муж ской</w>
у брать</w>
британ ский</w>
гор ных</w>
метал лурги
контрак там</w>
моон с
ка сса
ура л
резер вы</w>
большо му</w>
ли во</w>
знамени того</w>
ь ев
пассажи ра</w>
праздни ков</w>
каче ству</w>
опера тивные</w>
жда ется</w>
ово щи</w>
за пуска
не распространении</w>
нач нутся</w>
у свн</w>
проце ссах</w>
предназна ченных</w>
са хар
купи ли</w>
правоохрани тели</w>
при им
грузо вых</w>
1 24</w>
взры вов</w>
вита лия</w>
т э
г ад
ко стью</w>
чува ши
ок сана</w>
пере стре
широ кие</w>
ук лон
вл ю</w>
женщи не</w>
3, 3</w>
пло ско
знамени тый</w>
называ емые</w>
р но</w>
но г</w>
срав нении</w>
возобно вления</w>
при ю
эта пов</w>
департа ментом</w>
со ро
тя н</w>
ко з
сов ме
электро нная</w>
тор ских</w>
потря са
депута тами</w>
попа дают</w>
газо м</w>
изобра жение</w>
ст ях</w>
y pe</w>
разъя снения</w>
уда рил</w>
е ды</w>
уника льный</w>
ву за</w>
с цени
ни лись</w>
горя чей</w>
в мс</w>
е дет</w>
взаимо действии</w>
ль ском</w>
хок кей</w>
инди ка
рп ц</w>
предстоя щих</w>
при менить</w>
де фол
организо вано</w>
най роби</w>
ю ко
.b g</w>
служ бами</w>
крупней ший</w>
проя вить</w>
се в</w>
ст ная</w>
пара г
й ским</w>
по соб
над ба
о п</w>
би на</w>
внезап но</w>
0 7.
суще ствовать</w>
сыгра ют</w>
нега тивных</w>
клас сни
за ведо
соболез нования</w>
g .
оборо ну</w>
ю ар</w>
налого платель
подгото влены</w>
ар с
победи тель</w>
вс ё</w>
счита я</w>
препят ствовать</w>
зако нам</w>
сти ческая</w>
внутрен ним</w>
иденти фикации</w>
0, 4</w>
отказыва ются</w>
в ную</w>
гда ш
сиби рь</w>
конфи ска
кп п</w>
ле то
п р.</w>
нов города</w>
репатри а
вы держа
преж де
посоль ство</w>
веден о</w>
масштаб ных</w>
nr 2.ru</w>
ин тер</w>
террори сты</w>
при вяза
това лю
де кора
торго вый</w>
устраи вает</w>
о прос</w>
па па</w>
акти вами</w>
контро льно</w>
13 .
организо ван</w>
доро гие</w>
труд ностями</w>
поедин ка</w>
компенси ровать</w>
предо ставил</w>
опер ы</w>
в мести
сбо ре</w>
истори ей</w>
ub li
при зо
у йдет</w>
бес смыс
сек с</w>
полицей ским</w>
современ ный</w>
посе щать</w>
ру си</w>
гуманитар ным</w>
б ря
нище той</w>
гар ри</w>
верховен ства</w>
нынеш ние</w>
критери ям</w>
моло ко</w>
врата ря</w>
в ход</w>
экономи ческими</w>
инстру мента</w>
первонача льного</w>
хра нить</w>
компонен та</w>
ль ев</w>
посвя щен</w>
чен ности</w>
ше й
рей са</w>
рин г</w>
шев ченко</w>
пить евой</w>
про игра
ст ские</w>
обы ски</w>
прожи вание</w>
е шься</w>
уничто жение</w>
дри н</w>
осен и</w>
като ли
показа ло</w>
13 4</w>
к лик
по водом</w>
посе щение</w>
компью теров</w>
секре т</w>
участ ниц</w>
материаль ных</w>
ви ца</w>
ха х</w>
сани та
предлож ению</w>
фен о
внесен ными</w>
3 20</w>
заяви ло</w>
анти допин
мо хам
последова тельно</w>
род ном</w>
к ении</w>
рестора нов</w>
опас ные</w>
пере ми
19 75</w>
коммер ческие</w>
вьет нам</w>
победи ла</w>
рас писание</w>
площад ках</w>
приня тым</w>
гекта ров</w>
ка мера</w>
новосибир ске</w>
ш ников</w>
собствен ников</w>
т ц</w>
телефон ы</w>
приступи л</w>
сво я</w>
смяг чения</w>
под счетам</w>
предпринима ть</w>
утвержда ется</w>
не со
графи ка</w>
най ден</w>
бога тых</w>
трудо устройства</w>
за ва
до мом</w>
рас пи
собы тиями</w>
россия нам</w>
причаст ность</w>
комменти руя</w>
юн одк</w>
чеш ская</w>
анти корруп
при соедин
сни жается</w>
ли пе
ту н
потеря ть</w>
уби ли</w>
нен ным</w>
плани руем</w>
но ка
0 8.
наблюда теля</w>
гра ни</w>
комплек сы</w>
кар тин</w>
вяче слава</w>
про б</w>
ла ге
проверя ть</w>
вок за
возвра та</w>
эрдо ган</w>
став ьте</w>
точ нее</w>
праздно вания</w>
следова тель</w>
же р</w>
верси а
объясня ют</w>
по ры
привы кли</w>
ты с</w>
экра н</w>
урегули рование</w>
облига ции</w>
обмен у</w>
юж ном</w>
миро нов</w>
мо рато
внеш ним</w>
черного рии</w>
ленин град
де фек
расхо дах</w>
зи с</w>
улы б
inter fax
се стры</w>
происходя щее</w>
хо ре
пору чение</w>
я на</w>
попа да
дра матиче
влади востоке</w>
партнер стве</w>
у ме</w>
привле чены</w>
стра ница</w>
очеред ное</w>
рого зин</w>
возме щение</w>
донба сс</w>
обеспечи вается</w>
ма ны</w>
то гор
ва ющими</w>
посвящен а</w>
пре ры
оформи ть</w>
подгото вили</w>
концер на</w>
гон ча
су дами</w>
ред .</w>
парламента риев</w>
плани рованию</w>
декла рацию</w>
должност ными</w>
с кол
чи стый</w>
продолжа ться</w>
тон ны</w>
нагруз ку</w>
предприя тиями</w>
о телей</w>
социаль ный</w>
клиен т</w>
проявля ть</w>
ми рал</w>
у ходе</w>
про ва
бе к
право нарушения</w>
3, 7</w>
по просила</w>
васили я</w>
немец ких</w>
закончи лся</w>
ко ап</w>
деву шку</w>
инструк ции</w>
а то</w>
7 50</w>
зарубе жные</w>
изъя ли</w>
ф ей</w>
стро ения</w>
превы сил</w>
сбо ру</w>
ки пр
держи т</w>
н ба</w>
общен а
м ном</w>
бо ев</w>
ба нов</w>
иису с</w>
ди ей</w>
пользова телям</w>
гру з</w>
жд ениях</w>
ира ном</w>
ко пей
председа тельством</w>
закон ным</w>
медицин скую</w>
совершен ствовать</w>
прод ле
составля ли</w>
роско ш
дис сер
космо с</w>
ра ду
ран же
оста вшиеся</w>
откры лся</w>
казыва ется</w>
колони зации</w>
делега цией</w>
футболь ной</w>
сотрудни чает</w>
бен зи
страхо вание</w>
от нес
метал ло
констру и
выбра л</w>
у дво
де ев</w>
эн тузиа
ли ну</w>
перспекти в</w>
встрети лись</w>
модерни зацию</w>
сверх у</w>
устано влении</w>
оконча тельное</w>
опаса ются</w>
г ко
продук тами</w>
этниче ской</w>
ран у</w>
кру ге</w>
соб чак</w>
снего па
образо ваний</w>
юриди чески</w>
и тся</w>
разви тые</w>
ологи и</w>
за трудни
тюре много</w>
справедли вая</w>
снизи лись</w>
трибу ны</w>
надзор у</w>
ниче ский</w>
выя влены</w>
вклю чи
сек су
кораб ли</w>
ли ван
ан га
эква дор</w>
раз ве
ак сен
конкуренто способности</w>
инциден тов</w>
заслужи вает</w>
поступа ло</w>
дости гло</w>
удовлетвори л</w>
на би
задейство ваны</w>
гибе ль</w>
0, 6</w>
шта тами</w>
су ро
нехва тки</w>
ово щей</w>
без возмез
присут ствует</w>
хле б</w>
в стро
сп г</w>
возбу дили</w>
точ кой</w>
прово д</w>
радо сть</w>
приня того</w>
при шед
т тер</w>
вступа ет</w>
закончи лась</w>
за думы
стратеги ческие</w>
сти хи</w>
ко ре
го да
уволь нения</w>
ба пор</w>
ла з
перево де</w>
пар ни
особен ностей</w>
группи ровка</w>
аб сур
семей ного</w>
ча ться</w>
сы ном</w>
исследова тели</w>
лен ное</w>
эта жа</w>
р ную</w>
эксперти за</w>
кузне цова</w>
ко ве</w>
резер ви
сту п</w>
а нима
транс национальной</w>
единогла сно</w>
ми ны</w>
масшта ба</w>
откры та</w>
раз обла
свиде тельство</w>
удовлетво рить</w>
интер фей
прош лое</w>
преду смотреть</w>
содержа щих</w>
ря дах</w>
п сков
потреб ностям</w>
рефор миро
адвока ты</w>
нологи и</w>
туберку ле
сказыва ется</w>
уда ром</w>
вол шеб
запад ного</w>
написа ли</w>
подня лся</w>
доступ на</w>
аэро флот</w>
обяза тельным</w>
с прин
ка ран
с гово
любо пы
вы нести</w>
насили ю</w>
симво л</w>
н п</w>
право вую</w>
не равенства</w>
зна чений</w>
тро поли
да й</w>
мето дами</w>
мо и
структу рами</w>
г рин
ди п
постоян ные</w>
сцена ри
уничто жить</w>
трой ку</w>
че сти</w>
восстано ви
фир мен
зави сят</w>
ли ста</w>
аген та</w>
иллю стра
дн яо</w>
собра ний</w>
оптими зации</w>
достигну та</w>
периоди ческого</w>
страхо вой</w>
реконструк цию</w>
упомяну тых</w>
пило тов</w>
полу защитника</w>
три жды</w>
не кий</w>
да вал</w>
[...]
